<unk>	0
<s>	0
</s>	0
▁i	-2.94594
▁you	-3.13012
▁to	-3.4067
▁the	-3.52685
▁a	-3.81796
▁t	-3.88556
▁is	-4.22836
▁that	-4.33157
▁tom	-4.35985
▁it	-4.36273
▁he	-4.44393
▁s	-4.47536
▁do	-4.57652
▁of	-4.61163
▁this	-4.68548
▁me	-4.69976
▁in	-4.73951
▁have	-4.75154
▁don	-4.76924
▁we	-4.78845
▁was	-4.7889
n	-4.85593
▁what	-4.89612
▁my	-4.94263
▁can	-4.94354
▁for	-4.96662
▁are	-4.97619
▁m	-4.98875
▁be	-5.01989
▁your	-5.02618
▁did	-5.03427
▁re	-5.12358
▁she	-5.13864
▁	-5.1508
▁want	-5.16626
▁not	-5.1983
s	-5.30267
▁know	-5.3069
▁like	-5.33547
▁on	-5.36685
▁with	-5.40672
▁they	-5.47786
▁his	-5.55102
▁all	-5.55751
▁at	-5.56811
▁how	-5.58806
▁go	-5.62875
▁think	-5.66404
▁him	-5.70935
▁there	-5.70963
▁ll	-5.7384
▁ve	-5.77222
▁and	-5.80948
▁time	-5.81319
▁about	-5.82498
ed	-5.8335
▁get	-5.83835
▁here	-5.84075
▁were	-5.8884
very	-5.89579
▁no	-5.94741
▁her	-5.96827
▁had	-5.98306
▁will	-5.99072
▁one	-5.99694
▁would	-6.01078
▁as	-6.01242
▁has	-6.03228
▁why	-6.03245
▁if	-6.03282
▁d	-6.03452
▁up	-6.0514
▁out	-6.05351
▁just	-6.0579
▁going	-6.09857
▁could	-6.10081
▁should	-6.11837
▁who	-6.13917
▁tell	-6.16596
▁so	-6.17073
▁need	-6.18867
▁good	-6.1962
ing	-6.24247
▁does	-6.25051
▁let	-6.25202
▁mary	-6.25348
▁see	-6.27089
▁us	-6.27533
▁when	-6.2984
▁come	-6.31139
▁help	-6.32407
▁really	-6.32604
▁from	-6.3326
▁where	-6.3365
▁by	-6.33948
▁an	-6.36201
▁please	-6.38093
▁been	-6.43244
▁never	-6.44431
▁take	-6.44905
▁now	-6.45208
▁more	-6.46071
▁something	-6.51681
ly	-6.52657
▁got	-6.5275
▁too	-6.57439
▁much	-6.59688
▁than	-6.59908
▁make	-6.60471
d	-6.60724
▁some	-6.62438
▁right	-6.65208
▁work	-6.66356
▁but	-6.66411
▁am	-6.714
▁money	-6.71612
▁home	-6.73536
▁any	-6.74808
▁last	-6.74944
▁thought	-6.75122
e	-6.75224
▁say	-6.76712
▁car	-6.77058
▁give	-6.77069
▁anything	-6.77926
▁day	-6.78969
▁sure	-6.79169
▁back	-6.79686
▁look	-6.7987
▁told	-6.82207
▁talk	-6.82722
▁lot	-6.83137
▁people	-6.85725
▁must	-6.88719
y	-6.89456
▁made	-6.89593
▁way	-6.90285
▁our	-6.91231
▁said	-6.93032
▁love	-6.93321
▁today	-6.93508
▁many	-6.94169
▁long	-6.96216
▁went	-6.98201
▁still	-6.98839
▁happy	-6.99495
▁eat	-6.99742
▁feel	-6.99849
▁doing	-7.00077
▁won	-7.00534
▁only	-7.00804
▁house	-7.00809
▁always	-7.01011
▁better	-7.01011
▁french	-7.01585
▁believe	-7.02123
▁new	-7.04315
▁book	-7.05314
▁night	-7.05906
▁again	-7.06654
▁before	-7.06707
▁leave	-7.06926
▁room	-7.07645
▁school	-7.09082
▁them	-7.09293
▁job	-7.09294
▁off	-7.09933
▁little	-7.11999
▁well	-7.12451
▁everything	-7.168
▁father	-7.16801
▁may	-7.17353
▁old	-7.17431
▁down	-7.17931
▁over	-7.18802
▁tomorrow	-7.18833
▁isn	-7.18876
▁put	-7.19644
▁wanted	-7.20484
▁yesterday	-7.21025
▁alone	-7.2208
▁stay	-7.22156
▁happened	-7.22844
▁left	-7.23624
▁three	-7.24465
▁two	-7.24828
▁hard	-7.24906
▁find	-7.25975
▁enough	-7.2617
▁every	-7.26653
▁asked	-7.2732
▁stop	-7.27655
▁man	-7.27701
▁speak	-7.29457
▁understand	-7.30482
▁saw	-7.31082
▁these	-7.31328
▁done	-7.31425
▁try	-7.3158
▁keep	-7.31622
▁ask	-7.32183
▁nothing	-7.32374
▁or	-7.32599
▁into	-7.32983
▁g	-7.34408
▁problem	-7.34934
▁ever	-7.35302
▁next	-7.36508
▁sorry	-7.3651
▁friends	-7.36561
▁dog	-7.36699
▁call	-7.37311
▁buy	-7.38155
▁hope	-7.38629
▁after	-7.40112
▁friend	-7.42192
▁read	-7.42493
▁busy	-7.43327
▁wrong	-7.44291
▁away	-7.44774
▁live	-7.45454
▁life	-7.45923
▁door	-7.46451
▁play	-7.46711
▁other	-7.46796
▁late	-7.47057
▁things	-7.473
▁first	-7.47431
▁remember	-7.47742
▁mother	-7.47891
ave	-7.48131
▁everyone	-7.48502
▁idea	-7.49392
▁kind	-7.49576
▁hear	-7.49689
▁thing	-7.50041
▁name	-7.51125
▁anyone	-7.5178
▁boston	-7.52732
▁children	-7.53536
▁being	-7.5384
▁without	-7.54686
▁mind	-7.54696
▁years	-7.54883
st	-7.55041
▁their	-7.55328
▁looking	-7.55411
▁already	-7.55492
▁yet	-7.55492
▁knew	-7.55822
▁show	-7.56542
▁drink	-7.57642
▁came	-7.57644
▁used	-7.58524
▁tired	-7.59017
▁morning	-7.59522
▁teacher	-7.61114
▁turn	-7.61168
▁found	-7.62664
▁bad	-7.6269
▁best	-7.63199
▁heard	-7.63603
▁week	-7.63948
▁lost	-7.64081
▁water	-7.64266
▁often	-7.64982
▁even	-7.65315
▁quit	-7.65339
▁seen	-7.65355
▁same	-7.66074
▁wait	-7.66683
▁ready	-7.6824
▁care	-7.68281
▁wish	-7.68835
▁answer	-7.69575
▁use	-7.69919
▁afraid	-7.70373
▁soon	-7.70765
▁big	-7.72495
▁someone	-7.72503
▁few	-7.72888
▁bed	-7.73863
▁else	-7.7407
▁open	-7.74342
▁party	-7.74915
▁happen	-7.75293
▁english	-7.75463
▁yourself	-7.75669
▁aren	-7.76325
ok	-7.77905
▁nice	-7.79153
▁parents	-7.79372
▁while	-7.79571
▁haven	-7.79656
▁talking	-7.80294
▁cold	-7.803
▁myself	-7.80623
▁train	-7.81362
▁year	-7.81411
▁great	-7.81887
▁glad	-7.82546
▁bought	-7.82551
▁both	-7.83128
▁might	-7.83208
▁around	-7.84287
▁place	-7.84705
▁watch	-7.86225
▁married	-7.87183
▁true	-7.87456
▁another	-7.88319
▁hate	-7.88322
cause	-7.88896
▁early	-7.89019
▁sleep	-7.89601
▁wants	-7.89746
▁beautiful	-7.89932
▁pay	-7.89946
▁plan	-7.90763
▁those	-7.91345
▁hurt	-7.9135
▁such	-7.91572
▁question	-7.91585
▁which	-7.91808
▁looks	-7.91885
▁brother	-7.92506
▁everybody	-7.92521
▁tried	-7.92711
▁suppose	-7.92759
▁write	-7.92928
▁walk	-7.9354
▁almo	-7.93613
▁food	-7.94195
▁truth	-7.94934
▁fun	-7.95035
▁meeting	-7.95123
▁anymore	-7.95423
▁bus	-7.9589
▁matter	-7.95923
▁once	-7.9596
▁knows	-7.96159
▁letter	-7.96431
▁dinner	-7.96657
▁coffee	-7.96906
▁person	-7.97381
▁young	-7.9743
▁meet	-7.97804
▁enjoy	-7.98128
▁most	-7.98175
▁days	-7.98509
▁coming	-7.98733
▁sister	-7.99705
▁mine	-8.00307
▁met	-8.00718
▁doctor	-8.02047
▁nobody	-8.0307
▁own	-8.0336
ble	-8.03422
▁careful	-8.03465
▁each	-8.04135
▁change	-8.04582
▁hand	-8.05131
▁together	-8.05483
▁family	-8.05755
▁world	-8.063
▁seem	-8.06422
▁tonight	-8.07195
▁books	-8.07375
▁felt	-8.07401
▁waiting	-8.07693
▁since	-8.08697
▁forget	-8.08768
▁study	-8.09161
▁seems	-8.10146
▁learn	-8.1029
▁word	-8.10601
▁trying	-8.10634
▁phone	-8.10645
▁girl	-8.11154
▁easy	-8.11641
▁pretty	-8.11928
▁far	-8.12177
▁working	-8.12182
▁accident	-8.12596
▁died	-8.13239
▁station	-8.13386
▁longer	-8.13478
▁boy	-8.13789
ther	-8.14621
▁start	-8.15077
▁spend	-8.15269
▁mean	-8.15367
getting	-8.15434
▁started	-8.15457
▁wife	-8.15463
▁rain	-8.15909
er	-8.16082
▁child	-8.16362
▁gone	-8.16382
▁thank	-8.16632
▁un	-8.16722
▁important	-8.16973
▁drive	-8.1734
▁cat	-8.17553
▁sick	-8.17578
▁likes	-8.17947
▁surprised	-8.18549
▁finished	-8.18713
▁wonder	-8.18826
▁near	-8.19127
▁difficult	-8.19954
▁lunch	-8.21329
▁anybody	-8.21966
▁free	-8.22011
▁looked	-8.22219
▁questions	-8.22954
▁trust	-8.22964
▁mistake	-8.23607
al	-8.23861
▁movie	-8.24397
▁ten	-8.24926
▁reading	-8.25002
▁weather	-8.2555
▁bit	-8.26106
▁until	-8.2655
able	-8.27193
▁story	-8.27222
▁close	-8.27514
▁fire	-8.27774
▁office	-8.28878
▁swim	-8.29098
▁small	-8.29583
▁having	-8.29639
▁run	-8.30307
ting	-8.30704
▁tv	-8.31665
▁guess	-8.31905
▁makes	-8.31945
▁hours	-8.32059
▁ago	-8.32187
▁angry	-8.32414
▁playing	-8.32516
▁under	-8.3348
▁himself	-8.33485
▁advice	-8.33845
▁eyes	-8.3401
▁broke	-8.34149
▁stupid	-8.34201
▁times	-8.3453
▁hurry	-8.34568
▁picture	-8.34805
▁students	-8.34929
▁music	-8.3549
▁window	-8.35538
▁exactly	-8.36412
▁called	-8.3682
▁afternoon	-8.37515
▁fell	-8.37528
▁son	-8.37694
▁says	-8.37712
▁bicycle	-8.37889
▁minutes	-8.38233
▁caught	-8.38265
▁japan	-8.38265
▁lives	-8.38373
▁police	-8.39017
▁light	-8.39898
▁decided	-8.40226
▁fast	-8.40496
▁hair	-8.40551
▁eating	-8.40575
▁yours	-8.40693
▁hot	-8.40936
▁bring	-8.41189
▁interesting	-8.41366
▁ran	-8.41395
▁interested	-8.41777
▁park	-8.42025
▁trouble	-8.4223
▁agree	-8.42282
▁worry	-8.43091
▁arrived	-8.4335
▁high	-8.43506
▁table	-8.43673
▁town	-8.43699
r	-8.44076
▁proud	-8.44081
a	-8.44201
▁sit	-8.44363
▁number	-8.44799
▁thinking	-8.45212
▁forgot	-8.45691
▁game	-8.46012
▁miss	-8.46067
▁country	-8.46099
▁safe	-8.46331
▁chance	-8.46417
▁through	-8.46505
▁stand	-8.47066
▁japanese	-8.47327
▁homework	-8.4733
▁advised	-8.47349
es	-8.4768
▁catch	-8.47946
▁listen	-8.47999
▁age	-8.4826
▁cut	-8.48279
t	-8.48491
▁appreciate	-8.48851
▁reason	-8.48866
▁part	-8.49103
▁different	-8.49682
▁break	-8.4984
▁news	-8.50237
▁against	-8.50905
▁visit	-8.50963
▁promise	-8.51337
▁living	-8.51538
▁later	-8.51602
▁maybe	-8.51972
▁possible	-8.52415
▁kept	-8.53273
▁win	-8.53492
▁saying	-8.53535
▁finish	-8.53655
▁wine	-8.53866
▁large	-8.54131
▁lie	-8.54414
▁end	-8.54492
▁dead	-8.54594
▁summer	-8.54595
▁favorite	-8.54595
▁outside	-8.54615
▁hands	-8.54955
▁point	-8.55004
▁rich	-8.5501
▁born	-8.55049
▁tree	-8.55443
▁trip	-8.55453
▁moment	-8.55935
▁making	-8.55962
▁shoes	-8.56008
▁taking	-8.56019
▁business	-8.56834
▁hungry	-8.57749
▁full	-8.5813
▁girlfriend	-8.58207
▁face	-8.58442
▁die	-8.58695
▁tea	-8.59091
▁box	-8.59116
▁become	-8.5912
▁five	-8.59133
▁needs	-8.60822
▁class	-8.60977
▁rest	-8.61059
▁older	-8.61124
▁ok	-8.61298
▁daughter	-8.61456
▁behind	-8.61478
▁dress	-8.61638
▁team	-8.61966
▁red	-8.62179
▁secret	-8.6226
▁month	-8.62422
▁guy	-8.62426
▁company	-8.62433
▁song	-8.62529
▁baby	-8.62914
▁fish	-8.63708
▁woman	-8.63882
▁sing	-8.64273
▁hour	-8.6437
▁hat	-8.64765
▁lose	-8.64771
▁city	-8.64861
▁paid	-8.64865
ought	-8.65178
▁cra	-8.65308
▁choice	-8.6535
▁student	-8.65357
▁eaten	-8.65413
▁explain	-8.65845
▁somebody	-8.65848
▁works	-8.65955
▁serious	-8.662
▁breakfast	-8.66345
▁final	-8.66416
▁ra	-8.66457
▁clock	-8.66845
▁needed	-8.68345
▁funny	-8.68363
▁probabl	-8.68571
▁dream	-8.68692
▁clothes	-8.68873
▁quickly	-8.689
▁beer	-8.68969
▁stayed	-8.69119
▁hit	-8.69387
▁cost	-8.69415
▁tennis	-8.69899
▁invited	-8.69938
▁short	-8.70235
▁hotel	-8.70422
▁clean	-8.70445
▁smoking	-8.70941
▁sound	-8.71196
▁kids	-8.7175
▁watching	-8.71919
▁australia	-8.71988
▁key	-8.72024
▁ate	-8.72174
▁strong	-8.72488
▁milk	-8.72517
▁computer	-8.72553
▁war	-8.72659
▁asleep	-8.73049
▁death	-8.73049
▁deal	-8.73422
▁handle	-8.73478
▁minute	-8.73631
▁feeling	-8.73657
▁wearing	-8.7373
▁spent	-8.74122
▁river	-8.74662
▁present	-8.74693
▁scared	-8.74719
▁hospital	-8.75186
▁cup	-8.75206
▁expensive	-8.75752
not	-8.75806
▁real	-8.75976
▁expect	-8.76362
▁o	-8.76811
▁drunk	-8.7685
▁prefer	-8.76854
▁monday	-8.76912
▁sometimes	-8.76926
▁snow	-8.76938
▁lucky	-8.76939
▁touch	-8.76974
▁words	-8.77251
▁apologi	-8.77409
▁began	-8.77411
▁report	-8.77489
▁goes	-8.77907
▁lived	-8.7792
▁became	-8.77968
▁store	-8.78022
▁street	-8.78031
▁between	-8.7853
▁worried	-8.78531
▁decision	-8.78592
c	-8.79519
▁strange	-8.79638
▁comes	-8.79822
▁usual	-8.79834
▁birthday	-8.80235
▁front	-8.80235
▁others	-8.80374
urned	-8.80464
▁changed	-8.80525
▁studying	-8.80631
▁boss	-8.80809
▁whole	-8.80909
▁quiet	-8.81236
▁thirty	-8.81387
▁paper	-8.81471
▁check	-8.81541
▁heart	-8.81849
▁sunday	-8.81969
▁cake	-8.8204
▁language	-8.8206
▁hold	-8.82459
▁killed	-8.82845
▁speaking	-8.82866
▁dark	-8.83109
▁six	-8.83138
▁closed	-8.8338
▁sat	-8.83418
▁kill	-8.83484
▁mistakes	-8.84034
▁head	-8.84116
▁thanks	-8.84696
▁problems	-8.84718
▁wrote	-8.84936
▁restaurant	-8.85022
less	-8.8509
i	-8.85203
▁stopped	-8.85534
▁air	-8.85632
▁follow	-8.85646
▁takes	-8.86111
▁sense	-8.86367
▁dance	-8.86651
▁happening	-8.86727
▁upset	-8.86746
▁dangerous	-8.8675
▁figured	-8.86841
▁second	-8.86856
▁health	-8.87255
▁forward	-8.87359
▁coat	-8.87362
▁along	-8.87394
se	-8.87413
ook	-8.87439
▁situation	-8.8747
▁dogs	-8.87725
▁missed	-8.87804
▁list	-8.87966
▁actually	-8.87993
▁helped	-8.88032
▁order	-8.88431
▁whe	-8.88446
▁clear	-8.88452
▁liked	-8.88981
▁talked	-8.89025
▁half	-8.89221
▁shut	-8.89223
▁move	-8.89788
▁beach	-8.8986
▁allowed	-8.90062
▁worth	-8.90182
ually	-8.9065
▁worked	-8.907
▁expected	-8.90823
est	-8.90904
▁speaks	-8.9103
▁dictionary	-8.91762
▁evening	-8.91809
▁plane	-8.91872
▁building	-8.91944
▁running	-8.9241
▁mad	-8.92415
▁whatever	-8.92465
▁case	-8.92544
▁swimming	-8.93057
▁weekend	-8.93206
▁tall	-8.9353
▁necessary	-8.93718
▁pain	-8.93914
▁grow	-8.94024
▁seat	-8.94245
▁future	-8.94368
▁walked	-8.94512
▁perfect	-8.94873
▁christmas	-8.9503
▁luck	-8.95596
▁famous	-8.95697
▁broken	-8.95802
▁least	-8.96368
▁disappointed	-8.96413
▁reali	-8.96485
▁offer	-8.96766
▁seeing	-8.97235
▁join	-8.9732
▁happens	-8.97343
▁cook	-8.97414
▁smoke	-8.97545
▁written	-8.97727
▁dollars	-8.97783
▁drinking	-8.97832
▁fine	-8.98284
▁completely	-8.98453
▁sent	-8.98613
ever	-8.9872
▁accept	-8.98773
o	-8.9954
▁piano	-8.99793
▁opinion	-8.9999
▁rules	-9.00067
▁loves	-9.00164
▁white	-9.00493
▁crying	-9.00651
▁garden	-9.00824
▁either	-9.00839
▁fix	-9.00901
▁leaving	-9.01197
▁recogni	-9.01197
▁weight	-9.01249
▁choose	-9.01272
▁flowers	-9.01335
▁camera	-9.01398
▁pass	-9.01575
▁address	-9.01605
▁wear	-9.02347
▁floor	-9.02621
▁somewhere	-9.02625
▁road	-9.02828
▁noise	-9.02841
▁kiss	-9.02847
▁la	-9.03243
▁glass	-9.03318
▁husband	-9.0334
▁writing	-9.0334
▁information	-9.0334
▁sever	-9.04445
▁umbrella	-9.04794
▁danger	-9.0501
▁library	-9.0553
▁learned	-9.05552
▁alive	-9.05656
▁poor	-9.06084
▁date	-9.0619
m	-9.06193
▁success	-9.06845
▁attention	-9.07019
▁waste	-9.07148
▁girls	-9.07547
▁set	-9.07616
▁uncle	-9.07764
▁nervous	-9.07768
uring	-9.07811
▁sad	-9.07972
▁save	-9.07991
▁solve	-9.08408
▁blame	-9.08412
▁loved	-9.08939
▁vacation	-9.09289
▁bag	-9.09562
▁travel	-9.09774
▁smart	-9.1003
▁less	-9.10033
▁black	-9.10058
▁listening	-9.10421
▁send	-9.10604
▁sleeping	-9.1071
▁desk	-9.10834
▁wake	-9.10862
▁count	-9.10866
▁ship	-9.11016
▁opened	-9.11217
▁tie	-9.11505
▁women	-9.11615
▁borrow	-9.12106
▁teach	-9.12157
▁bank	-9.12414
▁guys	-9.1242
▁bother	-9.13146
▁shopping	-9.13197
▁taken	-9.13441
▁shirt	-9.13496
▁ticket	-9.13503
▁shot	-9.14018
▁spoke	-9.14039
▁horse	-9.14753
▁radio	-9.14803
▁medicine	-9.14803
▁b	-9.14844
▁side	-9.14896
▁lawyer	-9.1511
en	-9.15423
▁telephone	-9.15475
▁keys	-9.15558
▁guitar	-9.15612
▁joke	-9.1594
▁owe	-9.16304
▁college	-9.16435
▁tokyo	-9.16435
▁shower	-9.16817
▁act	-9.17337
▁willing	-9.17835
▁fight	-9.17932
▁sounds	-9.18042
▁lend	-9.18095
▁sell	-9.18181
▁arrive	-9.18287
▁means	-9.18632
▁test	-9.18699
▁abroad	-9.18935
▁boyfriend	-9.18935
▁prepared	-9.18978
▁honest	-9.19678
▁sign	-9.19759
▁speech	-9.19768
▁concert	-9.19783
▁throw	-9.19784
▁excuse	-9.19992
▁promised	-9.20054
▁discuss	-9.20123
▁color	-9.20129
▁piece	-9.20142
▁apple	-9.20145
▁pick	-9.20241
▁known	-9.20359
▁driving	-9.20638
▁share	-9.20638
▁lying	-9.20654
▁none	-9.20662
▁glasses	-9.20663
▁gun	-9.21041
▁cats	-9.21155
▁dressed	-9.21169
▁cry	-9.21323
▁fat	-9.21351
▁immediately	-9.21514
▁arm	-9.21593
▁across	-9.22369
▁couple	-9.22369
▁remain	-9.22369
▁ride	-9.22587
▁message	-9.22742
▁difference	-9.22742
▁storm	-9.23254
▁pictures	-9.23554
▁waited	-9.23772
▁certain	-9.23989
ion	-9.24014
▁afford	-9.24131
▁worse	-9.24141
▁plans	-9.24214
▁price	-9.24384
▁kid	-9.24535
▁correct	-9.24563
▁asking	-9.24629
▁four	-9.25018
▁carry	-9.25095
▁patient	-9.25418
▁fault	-9.25419
▁carefully	-9.25528
▁succeed	-9.25629
▁machine	-9.25925
▁involved	-9.25933
▁harder	-9.26139
▁agreed	-9.2624
▁cause	-9.26325
▁boys	-9.26527
▁regret	-9.26534
▁cute	-9.26564
▁pen	-9.26686
▁traffic	-9.26834
▁past	-9.26838
▁inside	-9.26998
▁begin	-9.27254
▁smell	-9.27256
▁line	-9.27459
▁figure	-9.27624
▁lake	-9.27754
▁empty	-9.27756
▁satisfied	-9.27765
▁f	-9.28034
▁belong	-9.28377
u	-9.28383
▁weird	-9.28678
▁bill	-9.29105
▁novel	-9.29111
▁staying	-9.29286
▁lock	-9.29287
▁deserve	-9.29472
w	-9.29545
▁shop	-9.2969
▁fired	-9.30001
▁raining	-9.30224
▁painting	-9.30244
▁blue	-9.30556
▁fill	-9.30558
▁ice	-9.30589
▁meat	-9.30909
▁movies	-9.31027
▁pretend	-9.31308
▁laugh	-9.31465
▁hundred	-9.31508
▁slept	-9.31508
▁easily	-9.31522
▁american	-9.31784
▁warm	-9.32113
▁impossible	-9.32469
▁television	-9.32469
▁twice	-9.32469
▁fit	-9.32494
▁america	-9.32656
▁risk	-9.32835
▁given	-9.32844
▁passed	-9.32871
p	-9.33074
▁attend	-9.33142
▁decide	-9.33304
▁winter	-9.33447
▁rent	-9.33481
▁held	-9.33542
▁chair	-9.33946
▁earlier	-9.34421
▁br	-9.3448
▁mail	-9.34539
▁driver	-9.34601
▁thinks	-9.34894
▁foreign	-9.35376
▁control	-9.35408
▁ahead	-9.35411
▁stuff	-9.35411
▁marry	-9.35412
▁anywhere	-9.35416
▁ill	-9.3558
▁surprise	-9.35764
▁kissed	-9.35819
▁consider	-9.35904
▁walking	-9.36219
▁boat	-9.36411
▁wonderful	-9.36432
▁animals	-9.36592
▁fall	-9.36742
▁experience	-9.36775
▁sentence	-9.36914
▁mountain	-9.36975
▁allow	-9.37202
▁prison	-9.37387
▁heavy	-9.37421
▁sitting	-9.37479
▁refused	-9.37497
▁fishing	-9.37829
▁sun	-9.38179
▁law	-9.3818
▁airport	-9.38441
▁herself	-9.38441
▁terrible	-9.38441
▁sooner	-9.38595
▁followed	-9.38941
▁newspaper	-9.38976
rew	-9.39179
ng	-9.39212
▁injured	-9.39472
▁remind	-9.39472
▁earth	-9.39474
▁drank	-9.39496
or	-9.39544
▁younger	-9.39592
g	-9.39692
▁laughed	-9.39791
▁lied	-9.39859
▁weeks	-9.40238
▁also	-9.40514
▁public	-9.40514
▁beginning	-9.40516
▁feed	-9.40526
▁mom	-9.40597
▁cooking	-9.40814
▁rid	-9.40898
▁liar	-9.4105
▁ideas	-9.4174
▁per	-9.41828
▁charge	-9.41988
▁singing	-9.42045
▁eye	-9.42143
▁apples	-9.42177
▁favor	-9.4263
▁plenty	-9.4263
▁failed	-9.42791
▁gift	-9.4289
▁painted	-9.42896
▁suggest	-9.43199
▁leg	-9.43285
▁depend	-9.43328
▁obvious	-9.43706
▁sugar	-9.43706
▁body	-9.43706
▁suddenly	-9.43772
▁laughing	-9.43926
▁moved	-9.4394
▁bottle	-9.44287
▁wall	-9.44289
▁top	-9.44449
▁leaves	-9.44608
▁absent	-9.44793
▁built	-9.44793
▁accused	-9.44799
▁sight	-9.44895
▁likely	-9.44898
▁seriously	-9.45112
▁learning	-9.45544
▁fear	-9.45891
▁impressed	-9.45962
▁seemed	-9.46001
▁bird	-9.46509
▁respect	-9.46635
on	-9.46867
▁blood	-9.47003
▁jealous	-9.47003
▁duty	-9.47003
▁eggs	-9.47127
▁taxi	-9.47476
▁wash	-9.47934
▁knife	-9.48126
▁button	-9.48127
▁convinced	-9.48224
▁special	-9.48686
▁return	-9.48967
▁drop	-9.49261
▁grandfather	-9.49263
▁president	-9.49263
▁gotten	-9.49263
▁sky	-9.49263
▁meant	-9.49369
▁though	-9.49401
▁aware	-9.49591
▁stolen	-9.49999
▁welcome	-9.50272
▁feelings	-9.50326
▁studied	-9.50412
▁trees	-9.50526
▁total	-9.50548
▁buying	-9.50886
▁ashamed	-9.51575
▁history	-9.51575
▁planning	-9.51582
▁its	-9.51849
▁smile	-9.52086
▁organi	-9.5212
▁admit	-9.52332
▁foot	-9.52751
▁bridge	-9.52751
▁taught	-9.52751
▁taller	-9.52803
▁ordered	-9.53315
either	-9.53353
▁calm	-9.53786
▁kitchen	-9.53942
▁months	-9.53971
▁warned	-9.54117
▁plays	-9.54242
▁paint	-9.54574
▁treat	-9.54769
▁extreme	-9.55147
▁government	-9.55147
▁yes	-9.55148
▁bread	-9.55154
▁arrested	-9.55241
▁wedding	-9.55248
▁saved	-9.55394
▁stole	-9.55582
▁breath	-9.55747
▁doubt	-9.55863
ced	-9.55947
▁protect	-9.55966
▁cross	-9.56046
▁simple	-9.56351
▁awake	-9.56366
▁spring	-9.56367
▁woke	-9.56421
ic	-9.56472
▁ama	-9.57164
▁god	-9.57226
▁fool	-9.57295
▁deep	-9.57454
▁escape	-9.57464
▁green	-9.57601
▁lonely	-9.57601
▁thousand	-9.57601
▁native	-9.57601
▁sort	-9.57603
▁slow	-9.57951
▁sleepy	-9.58157
le	-9.58251
▁fruit	-9.58324
▁voice	-9.58342
▁bet	-9.58404
▁rule	-9.58434
▁beat	-9.58824
▁seven	-9.58839
▁john	-9.58851
▁particular	-9.58851
▁schedule	-9.58851
▁proposal	-9.58851
giving	-9.58853
▁faster	-9.58944
▁raise	-9.59155
h	-9.59217
▁museum	-9.59599
▁power	-9.59611
▁baseball	-9.60116
▁boring	-9.60116
▁project	-9.60116
▁stood	-9.60116
▁sweet	-9.60116
▁fact	-9.60134
▁sold	-9.60138
f	-9.60546
▁church	-9.61399
▁enemy	-9.61399
▁york	-9.61399
▁cool	-9.61399
▁tears	-9.61474
▁received	-9.61476
▁dad	-9.61501
▁men	-9.61683
▁acting	-9.61707
▁crime	-9.62185
l	-9.62422
▁fair	-9.62551
▁pri	-9.62617
▁support	-9.62693
▁common	-9.62697
▁feels	-9.62939
▁considered	-9.63083
▁expecting	-9.63161
▁missing	-9.63326
▁stick	-9.63932
▁october	-9.64013
▁apartment	-9.64015
▁slowly	-9.64168
▁map	-9.64234
▁wind	-9.64318
ation	-9.64342
▁meal	-9.64567
▁explanation	-9.6482
▁ball	-9.64869
oo	-9.65057
th	-9.65112
▁languages	-9.65135
▁instead	-9.65346
▁london	-9.65346
▁mouth	-9.65346
▁teeth	-9.65346
▁feet	-9.65349
▁guilty	-9.6536
▁bath	-9.65386
▁club	-9.65399
▁hide	-9.65511
▁calling	-9.65915
ful	-9.6601
▁probab	-9.66139
▁avoid	-9.66421
▁continue	-9.66574
▁fresh	-9.66694
▁manager	-9.66714
▁worst	-9.66741
▁singer	-9.66959
▁neighbors	-9.67058
▁ring	-9.67467
rought	-9.67551
▁suit	-9.67566
▁visited	-9.67638
▁watched	-9.68503
▁pleased	-9.69022
▁contact	-9.69456
▁course	-9.69456
▁memory	-9.69456
▁solution	-9.69456
▁popular	-9.69457
▁cried	-9.6946
▁brush	-9.69502
▁helping	-9.69535
▁locked	-9.69897
▁forgive	-9.70054
▁star	-9.70081
▁notice	-9.70081
▁prove	-9.70513
▁hid	-9.70539
▁chinese	-9.70865
▁soccer	-9.70865
▁bored	-9.70895
▁paris	-9.70923
ar	-9.71127
ry	-9.71626
▁suitcase	-9.71793
▁result	-9.71799
▁hang	-9.7181
▁mess	-9.71827
▁push	-9.71998
▁salt	-9.72187
▁village	-9.7229
▁idiot	-9.72293
▁opportunity	-9.72294
▁france	-9.72294
▁bike	-9.72294
▁mood	-9.72295
▁dirty	-9.72302
▁nine	-9.72304
▁absolutely	-9.72326
re	-9.72488
▁unit	-9.72589
▁fed	-9.72742
▁standing	-9.72979
▁canadian	-9.73234
▁pair	-9.73234
▁stone	-9.73237
▁pi	-9.73267
▁listened	-9.73321
▁reach	-9.73491
▁normal	-9.73593
▁sea	-9.73727
▁responsible	-9.73743
▁excited	-9.73743
▁brothers	-9.73831
▁following	-9.74216
▁cars	-9.74476
▁prices	-9.74552
▁exam	-9.74705
▁private	-9.75062
▁drinks	-9.75091
ies	-9.75112
▁stuck	-9.75213
▁rope	-9.75216
mong	-9.75228
▁single	-9.7534
in	-9.75409
hap	-9.75457
▁washing	-9.75473
▁appointment	-9.76179
▁subject	-9.76179
▁meaning	-9.76186
▁pencil	-9.76202
▁keeps	-9.76377
▁jump	-9.7641
▁pull	-9.7641
▁spoken	-9.76668
▁permission	-9.76706
▁further	-9.76713
▁complaining	-9.76853
▁till	-9.77214
▁nose	-9.77389
b	-9.77575
▁explained	-9.77603
▁rains	-9.7766
▁starting	-9.77751
▁vote	-9.77936
▁straight	-9.7809
▁eight	-9.78111
▁german	-9.78117
▁curious	-9.78221
▁license	-9.78221
▁university	-9.78221
▁chess	-9.78222
▁wallet	-9.78226
▁comfortable	-9.78229
▁personal	-9.78231
▁familiar	-9.78235
▁hiding	-9.78432
▁certainly	-9.78472
▁lights	-9.78657
▁step	-9.7888
▁enter	-9.79102
▁tickets	-9.79166
▁flight	-9.79249
▁polite	-9.79609
▁account	-9.79755
▁depressed	-9.79759
▁purpose	-9.79759
▁rice	-9.7976
▁bedroom	-9.79767
▁bigger	-9.79768
▁shocked	-9.7989
▁eats	-9.80057
▁returned	-9.80162
▁growing	-9.80222
▁picked	-9.80296
an	-9.80305
▁heat	-9.80507
▁blind	-9.80514
▁taste	-9.80687
▁intend	-9.81058
▁art	-9.8106
▁player	-9.81116
▁convince	-9.81185
▁rude	-9.81318
▁entire	-9.81322
▁exercise	-9.81322
aga	-9.81341
▁fly	-9.8138
▁friendly	-9.81388
▁healthy	-9.81611
▁believed	-9.81983
id	-9.82081
▁chocolate	-9.82394
▁gas	-9.82509
▁cap	-9.82814
▁match	-9.82887
▁clever	-9.82909
▁cream	-9.82909
▁energy	-9.82909
▁innocent	-9.82909
▁yen	-9.82911
▁moon	-9.82918
▁recently	-9.82971
▁noticed	-9.83068
ond	-9.83072
ine	-9.83136
▁talks	-9.83144
▁rang	-9.83151
▁harm	-9.83167
▁birds	-9.83626
ated	-9.83737
▁holiday	-9.84024
▁europe	-9.84516
▁china	-9.84524
▁confused	-9.84557
▁songs	-9.84565
▁due	-9.84577
▁reached	-9.84852
▁fighting	-9.84904
▁windows	-9.8508
▁article	-9.85635
▁loud	-9.86013
▁imagine	-9.86056
▁dreams	-9.86102
▁countries	-9.86162
▁passport	-9.86162
▁understood	-9.86162
▁urgent	-9.86162
▁grab	-9.86163
▁vegetables	-9.86182
▁shy	-9.86205
▁huge	-9.86241
ous	-9.86269
▁entered	-9.86479
▁king	-9.86541
▁answered	-9.87081
▁wor	-9.87584
▁e	-9.8775
▁letters	-9.878
▁delighted	-9.87828
▁goodbye	-9.87828
▁twenty	-9.87828
▁dropped	-9.8783
▁silent	-9.8783
▁type	-9.87834
▁lady	-9.87834
▁exhausted	-9.8786
▁bear	-9.87957
▁handed	-9.87979
▁card	-9.88113
▁states	-9.88134
▁bare	-9.88451
▁mistaken	-9.88516
▁murder	-9.89111
ers	-9.89252
dom	-9.89475
iddle	-9.89519
▁grandmother	-9.89523
▁naive	-9.89523
▁concerned	-9.89689
▁covered	-9.89693
▁theory	-9.90088
▁results	-9.90113
▁sel	-9.90358
▁translate	-9.91109
▁peace	-9.91238
▁forgotten	-9.91247
▁truck	-9.91251
▁sweater	-9.91269
▁escaped	-9.9144
▁traveling	-9.91687
▁tastes	-9.91796
ve	-9.92407
▁shoulder	-9.92538
▁changes	-9.92699
▁wise	-9.92867
▁unhappy	-9.93002
▁view	-9.93002
▁cancer	-9.93002
▁pool	-9.93003
▁practice	-9.93007
▁attractive	-9.93019
▁gold	-9.93046
▁soup	-9.93071
▁tough	-9.93136
▁cookies	-9.93197
▁island	-9.93203
▁add	-9.93375
▁clearly	-9.93417
▁hearing	-9.93466
▁demand	-9.94069
▁photo	-9.94269
▁manage	-9.94655
▁attempt	-9.94787
▁cruel	-9.94787
▁kyoto	-9.94787
▁kidding	-9.94788
▁headache	-9.94789
▁golf	-9.94816
▁punished	-9.94843
▁embarrassed	-9.94854
ver	-9.94861
▁managed	-9.94925
▁skiing	-9.94925
▁c	-9.95111
▁cards	-9.95332
▁interest	-9.95588
▁rare	-9.957
▁ended	-9.95994
▁distance	-9.96079
▁dis	-9.96459
▁refuse	-9.96469
▁introduce	-9.96478
ta	-9.96497
▁cheap	-9.96577
▁admire	-9.96605
▁awesome	-9.96605
▁losing	-9.96605
▁thief	-9.96605
▁third	-9.96605
▁cash	-9.96606
▁dishes	-9.96613
▁anyway	-9.96633
▁smarter	-9.96674
▁si	-9.96951
▁games	-9.97008
▁relax	-9.97956
▁neighbor	-9.97964
▁obey	-9.98147
▁low	-9.98369
▁above	-9.98457
▁behavior	-9.98457
▁possibility	-9.98457
▁policeman	-9.98476
▁oldest	-9.98685
▁legs	-9.99317
▁land	-9.99698
▁earthquake	-9.99835
▁crowd	-10.0007
▁trusted	-10.0018
▁hop	-10.0025
▁matters	-10.0033
▁express	-10.0033
▁general	-10.0034
▁jacket	-10.0034
▁imagination	-10.0035
▁forever	-10.0038
▁confident	-10.004
▁system	-10.0041
▁soldiers	-10.0054
▁lay	-10.0062
▁bell	-10.0083
▁washed	-10.0085
▁wet	-10.0127
▁calls	-10.0144
▁chicken	-10.0174
▁suspect	-10.0175
ant	-10.0196
▁paying	-10.0196
▁brave	-10.0202
▁knock	-10.0207
▁sisters	-10.0211
▁natural	-10.0214
▁speaker	-10.022
▁accordi	-10.0227
▁cousin	-10.0227
▁dentist	-10.0227
▁ourselves	-10.0227
▁picnic	-10.0227
▁video	-10.0227
▁nuts	-10.0227
▁everywhere	-10.0227
▁names	-10.0249
▁p	-10.0255
▁advantage	-10.0274
▁teaching	-10.0275
▁accepted	-10.031
▁fail	-10.034
▁diet	-10.0366
▁rumor	-10.0372
▁draw	-10.0399
▁credit	-10.0423
▁dancing	-10.0423
▁england	-10.0423
▁moving	-10.0423
▁themselves	-10.0423
▁upstairs	-10.0423
▁market	-10.0423
▁diary	-10.0423
▁failure	-10.0423
▁available	-10.0423
▁awful	-10.0426
▁someday	-10.0426
▁tight	-10.0427
▁copy	-10.043
▁race	-10.0458
▁perfectly	-10.0466
▁complain	-10.0519
li	-10.0537
▁spends	-10.0551
il	-10.0567
▁stranger	-10.058
▁wood	-10.0587
▁teachers	-10.0588
▁shoot	-10.0603
▁hire	-10.0609
▁shall	-10.0623
▁email	-10.0623
▁examination	-10.0623
▁excellent	-10.0623
▁million	-10.0623
▁nurse	-10.0623
▁di	-10.0623
▁denied	-10.0624
▁oil	-10.0624
▁hired	-10.0637
▁shape	-10.0649
▁th	-10.0742
▁gunshot	-10.0777
▁appear	-10.0797
▁search	-10.0807
▁ignore	-10.0819
▁press	-10.0824
▁happiness	-10.0827
▁similar	-10.0827
▁hobby	-10.0827
▁easier	-10.0827
▁reply	-10.0829
▁discussion	-10.0829
▁artist	-10.0845
▁staring	-10.0856
▁details	-10.0862
▁sports	-10.0863
hrew	-10.087
▁warn	-10.0875
▁bar	-10.0934
▁saturday	-10.0984
▁parked	-10.0984
▁post	-10.1025
▁judge	-10.1027
▁apart	-10.1035
▁unfortunate	-10.1035
▁space	-10.1035
▁unlikely	-10.1035
▁roof	-10.1035
▁capital	-10.1035
▁punctual	-10.1035
▁invitation	-10.1035
▁pleasure	-10.1036
▁population	-10.1036
▁dying	-10.1036
▁burned	-10.1053
▁weak	-10.106
▁form	-10.1126
▁answers	-10.1161
▁human	-10.1197
▁page	-10.1197
▁habit	-10.1197
▁mention	-10.1219
▁costs	-10.1239
▁disagree	-10.1248
▁complicated	-10.1248
▁thirsty	-10.1249
▁useful	-10.1255
▁introduced	-10.1267
▁fairly	-10.1272
▁lies	-10.1273
▁cops	-10.1284
▁ears	-10.1285
▁noon	-10.13
▁within	-10.1315
▁de	-10.1326
▁facts	-10.1332
▁arms	-10.1343
▁group	-10.1414
▁argue	-10.1448
▁delicious	-10.1465
▁downstairs	-10.1465
▁garage	-10.1465
▁insurance	-10.1465
▁couch	-10.1465
▁nap	-10.1466
▁pour	-10.1468
el	-10.1489
▁dry	-10.1506
▁jumped	-10.1509
▁suggested	-10.1526
ive	-10.1536
▁highly	-10.1547
ity	-10.1552
▁poem	-10.1637
▁advance	-10.1673
▁loss	-10.1685
▁except	-10.1687
▁band	-10.1687
▁accustom	-10.1688
▁naked	-10.1688
▁supermarket	-10.1688
▁explosion	-10.1688
▁neighborhood	-10.1688
▁contract	-10.1688
▁jail	-10.1688
▁illegal	-10.1688
▁dating	-10.1688
▁fever	-10.1691
▁retired	-10.1693
▁leader	-10.1695
▁frightened	-10.1695
▁aim	-10.1701
▁hurts	-10.1708
▁prisoners	-10.1716
man	-10.1737
v	-10.1748
▁americans	-10.1805
▁meals	-10.1809
▁pre	-10.183
▁wears	-10.1845
▁disease	-10.1863
▁complete	-10.1886
▁survive	-10.1901
▁hung	-10.1903
▁sharp	-10.1908
▁conversation	-10.1915
▁courage	-10.1915
▁describe	-10.1915
▁grateful	-10.1915
▁responsibility	-10.1915
▁temperature	-10.1915
▁emergency	-10.1915
▁sofa	-10.1915
▁childhood	-10.1915
▁winning	-10.1916
te	-10.1916
▁suicide	-10.1916
▁offended	-10.1923
▁mayor	-10.1932
▁k	-10.1949
▁nor	-10.1952
▁treated	-10.1971
▁woods	-10.1972
▁runs	-10.2011
▁checked	-10.2035
coming	-10.209
▁pocket	-10.2098
▁climb	-10.2098
▁recommend	-10.2117
▁lift	-10.2117
▁goal	-10.2122
▁sudden	-10.2133
▁damage	-10.2133
▁rained	-10.2143
▁marriage	-10.2147
▁friday	-10.2147
▁position	-10.2147
▁ugly	-10.2147
▁sang	-10.2147
▁pressure	-10.2148
▁arguing	-10.2149
▁iron	-10.215
▁betrayed	-10.2156
▁guests	-10.2168
tic	-10.217
▁area	-10.217
▁bite	-10.218
▁promises	-10.2183
▁workers	-10.2187
▁chosen	-10.2197
▁borrowed	-10.2236
ch	-10.2238
ist	-10.2243
▁fixed	-10.2248
▁stock	-10.2306
▁example	-10.2333
▁engine	-10.2363
▁apply	-10.2386
▁fence	-10.2386
▁hurried	-10.2386
▁salary	-10.2386
▁lack	-10.2386
▁bathroom	-10.2386
▁safety	-10.2387
▁friendship	-10.2388
▁hill	-10.2391
▁abandoned	-10.2397
▁scare	-10.2401
▁closer	-10.2401
ness	-10.2405
▁smaller	-10.2406
▁beside	-10.2417
▁complained	-10.2421
is	-10.2428
▁solved	-10.2441
▁crossed	-10.2444
▁writer	-10.2455
▁succeeded	-10.2465
▁difficulty	-10.2466
▁worrying	-10.2506
▁cleaned	-10.2524
▁doors	-10.253
▁jokes	-10.2532
▁repair	-10.2546
▁rock	-10.2578
ur	-10.259
▁member	-10.2593
▁pie	-10.2594
▁hug	-10.2618
▁bright	-10.2625
▁exciting	-10.2629
▁fortunate	-10.2629
▁furniture	-10.2629
▁model	-10.2629
▁progress	-10.2629
▁ability	-10.2629
▁occurred	-10.2629
▁football	-10.263
▁classroom	-10.263
▁eventually	-10.263
▁foolish	-10.263
▁foods	-10.2638
▁spot	-10.2641
at	-10.2646
▁stamps	-10.2658
▁smiled	-10.2658
▁climbed	-10.2661
ish	-10.2665
▁pushed	-10.2681
▁aunt	-10.2683
▁hero	-10.2721
▁pu	-10.2748
us	-10.2754
▁smells	-10.2763
k	-10.2769
▁condition	-10.2773
et	-10.2796
▁attack	-10.2819
▁major	-10.2827
▁orders	-10.2827
▁record	-10.2829
▁sale	-10.283
▁flower	-10.2832
▁ground	-10.2859
▁persuade	-10.2866
▁advise	-10.2866
▁thin	-10.2879
▁drowned	-10.2879
▁midnight	-10.2879
▁round	-10.2879
▁hello	-10.2879
▁math	-10.288
▁science	-10.288
▁divorced	-10.2892
▁repaired	-10.291
▁hated	-10.2931
▁selling	-10.2939
▁lovely	-10.3046
▁quick	-10.3046
▁ski	-10.3053
▁file	-10.3072
▁airplane	-10.3084
ce	-10.3086
▁effort	-10.3086
▁badly	-10.3091
it	-10.3099
▁invite	-10.3125
▁r	-10.3131
▁education	-10.3133
▁cheese	-10.3136
▁loan	-10.3136
▁pleasant	-10.3136
▁service	-10.3136
▁horrible	-10.3136
▁grass	-10.3136
▁sand	-10.3136
▁cooperat	-10.3137
▁corner	-10.3138
▁stairs	-10.3139
▁parties	-10.3139
▁doll	-10.3141
ried	-10.3155
▁talented	-10.3159
ard	-10.3159
▁ignored	-10.3159
▁plants	-10.3171
ling	-10.3179
▁pulled	-10.3187
▁toward	-10.3195
▁using	-10.321
▁force	-10.326
▁touched	-10.3276
▁dare	-10.328
▁drives	-10.3297
▁seats	-10.3333
ty	-10.3354
▁repeat	-10.3369
▁spell	-10.3379
▁lately	-10.339
▁scene	-10.3398
▁amount	-10.3399
▁beauty	-10.3399
▁elevator	-10.3399
▁impatient	-10.3399
▁kick	-10.3399
▁joking	-10.3399
▁season	-10.3399
▁pale	-10.3399
▁impression	-10.3399
▁vase	-10.3399
▁illness	-10.34
▁pity	-10.34
▁burst	-10.34
▁fallen	-10.3402
▁served	-10.3408
▁butter	-10.3411
▁persuaded	-10.3414
▁proof	-10.3416
▁farmer	-10.3425
ra	-10.344
▁falling	-10.3451
▁members	-10.3453
▁beard	-10.349
▁cleaning	-10.35
▁finding	-10.3561
▁animal	-10.362
▁doctors	-10.3637
▁gate	-10.3649
▁prepare	-10.3656
▁sandwich	-10.3667
▁south	-10.3669
▁evidence	-10.3669
▁studies	-10.3669
▁suspicious	-10.3669
▁master	-10.3669
▁yellow	-10.3669
▁castle	-10.367
ter	-10.3671
▁anxious	-10.3672
▁planned	-10.3672
▁rush	-10.3672
▁fortune	-10.3676
▁despise	-10.3677
▁shelf	-10.368
▁assume	-10.3682
▁al	-10.369
▁prevented	-10.3697
▁continued	-10.37
▁houses	-10.3709
▁relaxed	-10.3713
▁co	-10.3736
▁carrie	-10.374
▁state	-10.3762
ate	-10.3766
▁stars	-10.3766
▁dreaming	-10.3775
▁pieces	-10.3829
▁finger	-10.3897
▁sport	-10.3898
▁criminal	-10.3898
▁cheer	-10.3917
▁guard	-10.3925
▁divorce	-10.3933
as	-10.394
▁main	-10.394
▁flat	-10.3947
▁audience	-10.3947
▁desperate	-10.3947
▁nature	-10.3947
▁patience	-10.3947
▁silence	-10.3947
▁strict	-10.3947
▁skinny	-10.3947
▁election	-10.3947
▁deny	-10.3947
▁tongue	-10.3947
▁nowhere	-10.395
▁fifty	-10.3951
▁roll	-10.3956
▁income	-10.397
▁army	-10.3981
ment	-10.406
▁ear	-10.4089
▁beg	-10.4105
▁jackson	-10.4179
▁pack	-10.4183
▁detail	-10.4183
▁prevent	-10.4203
▁greet	-10.4211
▁spread	-10.4211
▁require	-10.4219
▁v	-10.4228
▁u	-10.4229
▁cab	-10.4231
▁violin	-10.4232
▁stomach	-10.4233
▁intelligent	-10.4233
▁ocean	-10.4233
▁strength	-10.4233
▁thirteen	-10.4233
▁value	-10.4233
▁rough	-10.4233
▁unusual	-10.4233
▁fake	-10.4233
rove	-10.4233
▁percent	-10.4233
▁birth	-10.4235
▁reliable	-10.4235
▁graduated	-10.4242
▁suffering	-10.4247
▁survived	-10.425
▁stealing	-10.425
▁writes	-10.4251
▁compare	-10.4252
▁careless	-10.4255
▁forest	-10.4275
▁efforts	-10.4289
▁cop	-10.4312
▁caus	-10.4368
led	-10.437
▁newspapers	-10.4373
ro	-10.444
▁orange	-10.4477
▁shoe	-10.4478
▁lesson	-10.4479
▁extra	-10.4481
▁cancel	-10.4497
▁cover	-10.4498
▁computers	-10.4507
▁spare	-10.4512
▁lower	-10.4522
▁fifteen	-10.4527
▁politics	-10.4527
▁yourselves	-10.4527
▁argument	-10.4527
▁dumb	-10.4527
▁gentleman	-10.4527
▁anger	-10.4527
▁exist	-10.4527
▁theater	-10.4527
▁bomb	-10.4527
▁mathematics	-10.4529
▁pond	-10.453
▁frankly	-10.4531
▁brown	-10.4533
▁properly	-10.4533
▁barking	-10.4538
▁passengers	-10.454
▁concentrate	-10.4541
▁wounded	-10.4543
▁germany	-10.4547
▁ruined	-10.455
▁l	-10.4551
▁honesty	-10.4564
▁flying	-10.4564
▁roses	-10.4572
▁fog	-10.4582
rs	-10.4591
▁holding	-10.4628
▁discussed	-10.4631
▁lead	-10.4679
▁begins	-10.4689
ul	-10.4691
misunderstanding	-10.4715
▁jobs	-10.4747
▁interrupt	-10.4778
▁towel	-10.4778
▁debt	-10.4782
▁hole	-10.4785
▁alarm	-10.4799
▁request	-10.4799
▁speed	-10.481
▁farm	-10.4813
▁differ	-10.483
▁captain	-10.483
▁coincidence	-10.483
▁content	-10.483
▁eleven	-10.483
▁genius	-10.483
▁osaka	-10.483
▁smiling	-10.483
▁contest	-10.483
▁stories	-10.483
▁firm	-10.483
▁committed	-10.483
▁track	-10.483
▁belt	-10.483
▁happier	-10.4831
▁powerful	-10.4831
▁contain	-10.4833
▁elected	-10.4833
▁center	-10.4833
▁teaches	-10.4839
▁clouds	-10.4843
▁ambitious	-10.4844
▁boxes	-10.4844
▁stronger	-10.4847
▁horses	-10.4849
▁rely	-10.4853
▁board	-10.4854
▁deeply	-10.4866
▁appeared	-10.4874
ted	-10.4904
am	-10.4926
pe	-10.4947
▁author	-10.4971
▁north	-10.4987
▁novels	-10.4995
▁ho	-10.4995
▁concern	-10.506
to	-10.5081
▁intention	-10.509
▁issue	-10.5091
▁drawer	-10.5094
▁gain	-10.5127
▁hesitate	-10.5128
▁bottom	-10.5142
▁committee	-10.5142
▁relationship	-10.5142
▁struck	-10.5142
▁unexpected	-10.5142
▁toilet	-10.5143
▁package	-10.5143
▁handsome	-10.5143
▁relieved	-10.5145
▁oh	-10.5146
▁bargain	-10.5147
▁destroyed	-10.5155
▁cheated	-10.5155
▁socks	-10.5157
▁greatest	-10.5163
▁miles	-10.5165
▁closet	-10.5175
▁reasons	-10.5203
▁successful	-10.5215
▁rate	-10.5266
▁offered	-10.5283
▁headed	-10.5302
▁understanding	-10.5314
▁challenge	-10.5321
▁st	-10.5341
▁pro	-10.5389
▁understands	-10.5412
▁film	-10.5412
▁rose	-10.5416
▁saving	-10.544
▁direct	-10.5442
▁steal	-10.5445
▁electric	-10.5465
▁claim	-10.5465
▁engaged	-10.5465
▁lecture	-10.5465
▁modern	-10.5465
▁unlucky	-10.5465
▁password	-10.5465
▁plain	-10.5465
▁tower	-10.5465
▁bench	-10.5466
▁baked	-10.5467
▁robbe	-10.5467
▁text	-10.5472
▁determined	-10.5472
▁kindness	-10.5473
▁incredible	-10.5475
▁delayed	-10.5481
▁shorter	-10.5483
▁terms	-10.5487
▁planted	-10.5494
▁options	-10.5497
▁complaints	-10.5501
▁earns	-10.5502
▁crowded	-10.5519
▁dye	-10.5524
▁intended	-10.5527
▁bra	-10.5528
▁candy	-10.5533
▁places	-10.5544
▁photos	-10.5556
fully	-10.5557
▁holidays	-10.5566
▁doubts	-10.5599
ens	-10.5617
▁aside	-10.5626
▁mis	-10.5641
▁lines	-10.5644
▁accidents	-10.5696
cted	-10.5707
▁tru	-10.5725
▁behave	-10.5732
▁tire	-10.5736
▁odd	-10.5746
▁actor	-10.5748
▁papers	-10.5749
▁weigh	-10.5751
▁poison	-10.5777
gged	-10.5788
▁alcohol	-10.5798
▁africa	-10.5798
▁album	-10.5798
▁deaf	-10.5798
▁economy	-10.5798
▁experiment	-10.5798
▁itself	-10.5798
▁local	-10.5798
▁narrow	-10.5798
▁preparing	-10.5798
▁stunned	-10.5798
▁uncomfortable	-10.5798
▁begun	-10.5798
▁thick	-10.5798
▁jam	-10.58
▁threatened	-10.5802
▁italy	-10.5803
▁pants	-10.5811
▁canceled	-10.5832
▁tooth	-10.5834
ance	-10.5836
▁spy	-10.5837
▁fate	-10.5846
la	-10.5855
pite	-10.5863
▁pockets	-10.5871
▁danced	-10.5875
▁kissing	-10.5892
▁trained	-10.5932
▁closely	-10.5947
▁cooked	-10.5947
▁paintings	-10.5978
▁web	-10.5989
▁bags	-10.602
▁ours	-10.6024
▁expert	-10.6091
▁weapon	-10.6093
▁suggestion	-10.6094
▁shock	-10.6114
▁false	-10.6127
▁build	-10.6137
▁dessert	-10.6143
▁insane	-10.6143
▁internet	-10.6143
▁knowledge	-10.6143
▁nonsense	-10.6143
▁spain	-10.6143
▁spoon	-10.6143
▁supper	-10.6143
▁swear	-10.6143
▁generous	-10.6143
▁soft	-10.6143
▁violence	-10.6143
▁bitten	-10.6143
▁conference	-10.6143
▁salad	-10.6143
▁departure	-10.6143
▁instructions	-10.6143
▁ceremony	-10.6143
▁data	-10.6143
▁climate	-10.6144
▁glance	-10.6145
▁mental	-10.6146
▁valuable	-10.6146
▁scolded	-10.6149
▁annoying	-10.6157
▁screaming	-10.616
▁larger	-10.6161
▁drugs	-10.6186
▁ja	-10.6188
▁helpful	-10.6191
▁attacked	-10.6191
▁hanging	-10.6192
▁fingers	-10.6206
hook	-10.622
▁upon	-10.622
▁skirt	-10.6277
▁mo	-10.6298
▁witness	-10.63
▁visiting	-10.6306
ally	-10.6331
▁tend	-10.6335
▁equal	-10.6448
▁website	-10.645
▁product	-10.645
▁cares	-10.6455
▁mondays	-10.6462
▁hammer	-10.6468
▁focus	-10.647
▁improve	-10.6485
▁confidence	-10.65
▁luggage	-10.65
▁mirror	-10.65
▁research	-10.65
▁tattoo	-10.65
▁surprising	-10.65
▁assistance	-10.65
▁hall	-10.65
▁electricity	-10.6501
▁silly	-10.6501
▁taxes	-10.6502
▁lasted	-10.6507
▁screw	-10.6508
▁adopted	-10.651
▁informed	-10.6517
▁higher	-10.6527
▁customers	-10.6533
▁warning	-10.6536
▁ble	-10.6539
dy	-10.6542
dical	-10.6574
▁tax	-10.658
▁legal	-10.6588
lent	-10.6596
ent	-10.66
▁attended	-10.6612
▁admitt	-10.6639
▁sincere	-10.6649
▁planet	-10.6702
▁ways	-10.6753
▁chose	-10.6792
▁resign	-10.6812
▁program	-10.6818
▁fan	-10.682
▁ghost	-10.6821
▁sometime	-10.6829
▁mist	-10.6836
▁arrest	-10.6841
▁sweat	-10.6845
▁ruin	-10.685
▁self	-10.6856
▁double	-10.6856
▁wondered	-10.6856
▁possibl	-10.6859
▁cell	-10.6863
▁recent	-10.6866
▁shame	-10.687
▁apology	-10.6871
▁court	-10.6871
▁industry	-10.6871
▁constant	-10.6871
▁funeral	-10.6871
▁battle	-10.6871
▁edge	-10.6871
▁potatoes	-10.6872
▁musician	-10.6872
▁allergi	-10.6872
▁choices	-10.6873
▁cities	-10.6873
▁bigge	-10.6874
▁dumped	-10.6876
▁cheaper	-10.6877
▁louder	-10.6877
▁attitude	-10.6877
▁coward	-10.6881
▁warmer	-10.6882
▁removed	-10.6883
▁disappeared	-10.6884
▁secrets	-10.6885
▁employees	-10.6887
▁divide	-10.689
▁walks	-10.6891
▁translated	-10.6901
▁slight	-10.6903
▁imagined	-10.6914
▁reasonable	-10.6917
▁crack	-10.6924
▁weapons	-10.6925
▁ringing	-10.6925
▁accompanie	-10.6958
▁ga	-10.6966
▁lit	-10.6973
▁skin	-10.6988
ure	-10.6995
▁con	-10.6997
definitely	-10.6998
▁handy	-10.7018
▁seated	-10.7044
king	-10.705
▁mountains	-10.7058
ug	-10.7068
ad	-10.7076
▁shake	-10.7184
tion	-10.7193
▁miracle	-10.7202
▁reservation	-10.7203
▁comment	-10.7204
▁nerve	-10.7204
▁incredibl	-10.7243
▁pet	-10.7245
▁ambulance	-10.7255
▁ancient	-10.7255
▁autumn	-10.7255
▁border	-10.7255
▁entrance	-10.7255
▁gloves	-10.7255
▁granted	-10.7255
▁haircut	-10.7255
▁security	-10.7255
▁sophisticated	-10.7255
▁square	-10.7255
▁subway	-10.7255
▁timid	-10.7255
▁translation	-10.7255
▁related	-10.7255
▁gear	-10.7255
▁refrigerator	-10.7255
▁wild	-10.7255
▁significant	-10.7255
▁social	-10.7255
▁accomplish	-10.7255
▁eager	-10.7256
▁professional	-10.7257
▁photograph	-10.7257
▁brain	-10.7257
▁lightning	-10.7257
▁published	-10.7257
▁disgusting	-10.7258
▁bleeding	-10.7261
▁fluently	-10.7267
▁sensitive	-10.7268
▁original	-10.7269
ri	-10.727
▁gathered	-10.727
▁disturbed	-10.7274
▁cigarettes	-10.7288
▁products	-10.7309
▁sore	-10.7315
▁hook	-10.7328
▁counting	-10.7355
▁handled	-10.7362
▁rainy	-10.7393
▁snowing	-10.7396
▁armed	-10.7402
▁signed	-10.7409
ia	-10.7418
▁sons	-10.7423
▁hopes	-10.7476
▁plant	-10.7478
▁sounded	-10.7481
▁breathe	-10.7482
▁cow	-10.7489
▁starts	-10.7518
▁fashion	-10.7551
▁volunteer	-10.7554
bed	-10.7585
▁owns	-10.76
▁method	-10.7602
▁nation	-10.7602
▁bound	-10.7603
▁dislike	-10.7603
ow	-10.7604
▁scientist	-10.7605
▁scream	-10.7605
▁suffer	-10.7605
▁drug	-10.7606
▁prisoner	-10.7617
▁respond	-10.7624
▁serve	-10.7639
▁remove	-10.7641
cious	-10.7642
▁bitter	-10.7644
▁flu	-10.7648
▁poet	-10.7655
▁trap	-10.7655
▁absence	-10.7655
▁actress	-10.7655
▁conclusion	-10.7655
▁current	-10.7655
▁jeans	-10.7655
▁purse	-10.7655
▁ridiculous	-10.7655
▁stretch	-10.7655
▁volume	-10.7655
▁nearby	-10.7655
▁okay	-10.7655
▁invented	-10.7655
▁coach	-10.7655
▁mall	-10.7655
▁strike	-10.7655
▁average	-10.7655
▁connection	-10.7655
▁authority	-10.7656
▁resist	-10.766
▁pride	-10.7663
▁tallest	-10.7664
▁embarrassing	-10.7664
ap	-10.7667
▁discovered	-10.7668
▁fastest	-10.767
▁slice	-10.7672
▁burning	-10.7674
▁darker	-10.7675
▁recovered	-10.7677
▁vale	-10.7678
▁devote	-10.7682
▁useless	-10.7687
▁alike	-10.7688
▁twin	-10.769
▁personally	-10.7699
▁candles	-10.7699
▁cows	-10.7706
▁sleeps	-10.7712
age	-10.7723
▁ages	-10.7735
▁tense	-10.7788
▁sh	-10.7808
▁wasted	-10.785
▁risks	-10.7867
though	-10.7886
apped	-10.789
ke	-10.7915
ts	-10.7942
ied	-10.7962
ipped	-10.7989
▁urge	-10.8014
▁appearance	-10.802
▁stamp	-10.8022
▁object	-10.804
▁consist	-10.8042
▁faith	-10.8054
▁exact	-10.8058
▁graduate	-10.8058
▁increase	-10.8064
▁citi	-10.807
▁commit	-10.8072
▁basket	-10.8072
▁ceiling	-10.8072
▁complex	-10.8072
▁compromise	-10.8072
▁fantastic	-10.8072
▁fuji	-10.8072
▁harvard	-10.8072
▁jerk	-10.8072
▁policy	-10.8072
▁scissors	-10.8072
▁scratch	-10.8072
▁steak	-10.8072
▁temper	-10.8072
▁throat	-10.8072
▁unfair	-10.8072
▁below	-10.8072
▁debate	-10.8072
▁apparent	-10.8072
▁application	-10.8072
▁noisy	-10.8072
▁decline	-10.8072
▁assistant	-10.8072
▁mystery	-10.8072
▁humor	-10.8072
▁bucket	-10.8072
▁bass	-10.8072
▁operation	-10.8072
▁vain	-10.8072
▁sheep	-10.8072
▁investigation	-10.8072
▁deadline	-10.8073
▁receive	-10.8078
▁yelling	-10.8079
▁postponed	-10.8087
▁snakes	-10.8088
▁daughters	-10.8092
▁required	-10.8092
ntine	-10.8096
▁culture	-10.8105
▁wipe	-10.8125
▁knowing	-10.816
▁chances	-10.8164
▁sl	-10.819
▁praise	-10.8195
cy	-10.8212
lo	-10.8221
▁charges	-10.8274
▁bills	-10.8302
place	-10.8383
▁document	-10.8392
▁buildings	-10.8407
one	-10.8409
▁burn	-10.845
red	-10.845
▁notebook	-10.8453
▁disappoint	-10.8457
▁streets	-10.8457
▁egg	-10.8457
ot	-10.8458
▁action	-10.8461
ut	-10.8468
ack	-10.849
▁provide	-10.8493
▁postpone	-10.8494
▁shave	-10.8499
▁baggage	-10.8507
▁circle	-10.8507
▁enemies	-10.8507
▁quarter	-10.8507
▁sunglasses	-10.8507
▁target	-10.8507
▁twelve	-10.8507
▁vegetarian	-10.8507
▁silver	-10.8507
▁visa	-10.8507
▁pitch	-10.8507
▁ambition	-10.8507
nna	-10.8507
▁journalist	-10.8507
▁importance	-10.8507
▁bribe	-10.8507
▁dust	-10.8507
▁selfish	-10.8507
▁simply	-10.8508
▁miserable	-10.8508
▁guide	-10.8508
▁wheel	-10.8509
▁agreement	-10.851
▁factory	-10.851
▁stopping	-10.8511
▁surrounded	-10.8511
▁supplies	-10.8515
▁distracted	-10.8515
▁collecting	-10.8518
▁survivors	-10.8519
▁improved	-10.8524
▁fainted	-10.8527
▁coins	-10.8528
▁russian	-10.8544
▁earn	-10.855
▁wishes	-10.8558
▁packed	-10.856
▁twins	-10.8562
▁ghosts	-10.8566
▁hoped	-10.8576
▁forty	-10.8627
▁suits	-10.867
▁goods	-10.869
▁ink	-10.8709
▁compar	-10.8745
ide	-10.8757
▁shirts	-10.8788
▁task	-10.8788
▁insult	-10.8798
▁trick	-10.887
▁hi	-10.887
▁rooms	-10.8878
▁limit	-10.888
▁loose	-10.888
▁alternative	-10.8911
▁candle	-10.8912
▁direction	-10.8912
▁field	-10.8914
▁wire	-10.8915
▁complaint	-10.8917
▁tail	-10.8918
▁crash	-10.8933
▁remembered	-10.894
▁assum	-10.894
▁rise	-10.8943
▁exchange	-10.8947
▁cure	-10.8948
▁ex	-10.895
▁fro	-10.8956
▁acquaint	-10.8961
▁occasion	-10.8961
▁appropriate	-10.8961
▁cautious	-10.8961
▁changing	-10.8961
▁ease	-10.8961
▁gambling	-10.8961
▁stubborn	-10.8961
▁terribly	-10.8961
▁accent	-10.8961
▁positive	-10.8961
▁rome	-10.8961
▁department	-10.8961
▁juice	-10.8961
▁source	-10.8962
▁mouse	-10.8962
▁downtown	-10.8962
▁carpet	-10.8963
▁effective	-10.8963
▁wide	-10.8964
mobile	-10.897
▁float	-10.8971
ines	-10.8974
▁peel	-10.8976
▁camping	-10.8977
▁answering	-10.8983
ero	-10.8991
▁volunteered	-10.8996
▁loudly	-10.9003
▁voted	-10.9004
▁knees	-10.9007
▁scientists	-10.9019
▁rubb	-10.9024
▁fork	-10.9041
uc	-10.9043
▁strangers	-10.908
▁super	-10.9083
ig	-10.9103
▁suitcases	-10.9125
▁bi	-10.9148
▁walls	-10.9177
▁mars	-10.9181
do	-10.9197
▁parking	-10.92
▁tour	-10.9207
vi	-10.9239
raised	-10.9244
▁painful	-10.9247
▁tied	-10.9289
ll	-10.9307
▁lawn	-10.9329
▁note	-10.9332
▁ch	-10.9348
▁talent	-10.9357
▁beginner	-10.9385
▁rabbit	-10.9387
▁annoy	-10.9387
▁soldier	-10.9389
▁cookie	-10.9389
▁fle	-10.9394
▁blow	-10.9397
▁fi	-10.9398
▁training	-10.9404
▁wealth	-10.9427
▁memori	-10.9435
▁encourage	-10.9437
▁aggressive	-10.9437
▁century	-10.9437
▁convenient	-10.9437
▁defend	-10.9437
▁envelope	-10.9437
▁flag	-10.9437
▁garbage	-10.9437
▁journey	-10.9437
▁political	-10.9437
▁receipt	-10.9437
▁staff	-10.9437
▁unconscious	-10.9437
▁discount	-10.9437
▁pardon	-10.9437
▁plastic	-10.9437
▁intersection	-10.9437
▁brand	-10.9438
▁visitors	-10.9439
▁maid	-10.9439
▁reflect	-10.9439
▁millionaire	-10.9439
▁dedicated	-10.9441
▁freak	-10.9441
▁rejected	-10.9441
competent	-10.9442
▁released	-10.9443
▁freedom	-10.9445
▁switch	-10.9447
▁raw	-10.9447
▁rescued	-10.9449
▁celebrate	-10.9449
▁oven	-10.9451
▁achieved	-10.9452
▁exchanged	-10.9452
▁mission	-10.9457
▁classes	-10.946
▁grades	-10.9462
▁helps	-10.9471
▁meters	-10.9476
▁clue	-10.9479
▁engineer	-10.9484
ary	-10.9488
▁mud	-10.9498
▁mentioned	-10.9506
▁officer	-10.9507
▁loser	-10.9514
▁bowl	-10.9521
▁shaken	-10.9538
▁grown	-10.954
▁blamed	-10.9543
▁gunshots	-10.9557
ub	-10.9562
▁tip	-10.9573
ical	-10.9606
op	-10.9607
nd	-10.9613
ile	-10.9724
▁applie	-10.9726
ship	-10.9768
um	-10.9789
▁ju	-10.9849
▁error	-10.9887
▁approach	-10.9887
▁teenager	-10.9887
▁banana	-10.9887
▁knee	-10.9887
▁option	-10.9888
▁consult	-10.9905
▁cough	-10.9905
ssed	-10.9914
▁neat	-10.9921
▁fluent	-10.9923
▁height	-10.9936
ify	-10.9936
▁wreck	-10.9937
▁smooth	-10.9937
▁burglar	-10.9937
▁crisis	-10.9937
▁engagement	-10.9937
▁fascinating	-10.9937
▁handkerchief	-10.9937
▁misunderstood	-10.9937
▁overweight	-10.9937
▁presence	-10.9937
▁proceed	-10.9937
▁rising	-10.9937
▁split	-10.9937
▁surgery	-10.9937
▁typhoon	-10.9937
▁universe	-10.9937
▁bookstore	-10.9937
▁motorcycle	-10.9937
▁code	-10.9937
▁pilot	-10.9938
▁cellphone	-10.9938
▁minor	-10.9938
▁optimistic	-10.9938
▁opera	-10.9938
▁boots	-10.9938
▁chain	-10.9938
▁buried	-10.9938
▁terrified	-10.9938
▁critici	-10.9938
▁blackboard	-10.9938
▁quality	-10.9938
▁bat	-10.9938
▁halfway	-10.9938
▁critical	-10.9938
▁bug	-10.9939
▁crew	-10.994
▁india	-10.994
▁bedtime	-10.9941
▁efficient	-10.9942
▁examined	-10.9946
▁connected	-10.9946
pr	-10.9946
▁folded	-10.9946
▁style	-10.9946
▁scary	-10.9947
▁difficulties	-10.9947
▁classmates	-10.995
▁canada	-10.9954
▁tourists	-10.997
▁soul	-10.9974
▁suffered	-10.9975
▁lifted	-11.0003
▁oranges	-11.0024
ily	-11.0031
▁toys	-11.004
▁sales	-11.004
▁conditions	-11.0041
▁sum	-11.0055
side	-11.0061
▁formed	-11.0067
▁goals	-11.0082
▁safely	-11.0125
ified	-11.0196
▁bringing	-11.0204
▁settle	-11.0206
nter	-11.0254
▁rested	-11.0274
▁ha	-11.0305
em	-11.0313
ier	-11.0318
▁skill	-11.0344
ip	-11.0355
▁interfere	-11.0372
▁observ	-11.0381
▁regard	-11.0381
▁wound	-11.0382
▁custom	-11.041
▁pray	-11.0411
▁leak	-11.0411
▁whale	-11.0412
▁victim	-11.0413
▁adult	-11.0413
▁bone	-11.0413
▁bark	-11.0414
▁topic	-11.0415
up	-11.0436
▁cloth	-11.0442
▁surf	-11.0443
▁participate	-11.0449
▁pronounce	-11.0459
▁comfort	-11.0461
ral	-11.0463
▁absorb	-11.0464
▁british	-11.0464
▁character	-11.0464
▁incident	-11.0464
▁negative	-11.0464
▁pepper	-11.0464
▁professor	-11.0464
▁religious	-11.0464
▁starving	-11.0464
▁sunscreen	-11.0464
▁supply	-11.0464
▁verify	-11.0464
▁surrender	-11.0464
▁basketball	-11.0464
▁performance	-11.0464
▁detective	-11.0464
▁evil	-11.0464
▁trade	-11.0464
▁racket	-11.0464
▁impressive	-11.0464
▁productive	-11.0464
▁bang	-11.0464
▁beef	-11.0465
▁supportive	-11.0465
▁laughter	-11.0466
▁secretary	-11.0466
▁prohibited	-11.0466
▁chest	-11.0467
▁logical	-11.0468
▁pills	-11.047
▁starved	-11.047
▁expenses	-11.0471
▁accurate	-11.0472
▁emotional	-11.0472
▁cent	-11.0472
▁cherr	-11.0475
▁row	-11.0475
▁cheating	-11.0478
▁provided	-11.0481
▁tune	-11.0481
▁pot	-11.0481
▁official	-11.0484
▁settled	-11.0485
▁loaded	-11.0487
▁degrees	-11.049
out	-11.0491
▁online	-11.0493
▁youngest	-11.0494
he	-11.0497
▁crashed	-11.0499
▁bananas	-11.0517
▁replace	-11.0525
▁documents	-11.0525
▁cave	-11.0539
▁experienced	-11.0541
▁deserved	-11.0545
▁debts	-11.0553
raveled	-11.0566
▁w	-11.0587
ac	-11.06
▁stepp	-11.0607
▁dr	-11.0609
▁respected	-11.0611
▁helpless	-11.0631
▁worker	-11.0649
▁latest	-11.066
▁stri	-11.0736
▁falls	-11.0736
▁chairs	-11.0744
▁underestimate	-11.0775
▁excuses	-11.0786
ud	-11.0804
iest	-11.0848
▁opinions	-11.0859
▁ru	-11.0914
▁cr	-11.0923
▁guessed	-11.0933
▁coast	-11.0948
▁recover	-11.0958
guard	-11.096
ti	-11.0961
▁resource	-11.0968
▁guest	-11.097
▁dollar	-11.0972
▁wi	-11.0972
▁customer	-11.0973
▁flood	-11.0988
▁camp	-11.0999
▁regular	-11.1003
▁financial	-11.1004
▁rescue	-11.1005
▁resi	-11.101
▁permit	-11.1017
▁magic	-11.1019
▁bloom	-11.1019
▁cottage	-11.1019
▁dishwasher	-11.1019
▁families	-11.1019
▁innocence	-11.1019
▁interview	-11.1019
▁jogging	-11.1019
▁length	-11.1019
▁nightmare	-11.1019
▁poker	-11.1019
▁postcard	-11.1019
▁privacy	-11.1019
▁promoted	-11.1019
▁reconsider	-11.1019
▁swallow	-11.1019
▁uniform	-11.1019
▁violent	-11.1019
▁april	-11.1019
▁hugged	-11.1019
▁vivid	-11.1019
▁fridge	-11.1019
▁bold	-11.1019
▁minister	-11.1019
▁recall	-11.1019
▁trunk	-11.1019
▁swimmer	-11.1019
▁criticism	-11.1019
▁temptation	-11.1019
▁creative	-11.1019
▁decent	-11.1019
▁june	-11.1019
▁angel	-11.1019
▁hidden	-11.1019
▁yard	-11.1019
▁spanish	-11.102
▁bunch	-11.102
▁psychic	-11.102
▁addition	-11.102
▁assure	-11.102
▁spotted	-11.102
▁score	-11.102
▁personality	-11.1021
▁charming	-11.1022
▁sp	-11.1024
▁waved	-11.1025
▁conditioner	-11.1026
▁briefly	-11.1028
▁hunting	-11.103
▁confessed	-11.1031
▁pillow	-11.1031
▁approved	-11.1032
▁event	-11.1034
▁opposite	-11.1035
▁remarks	-11.1035
▁manners	-11.1035
▁sauce	-11.1043
ian	-11.1049
▁screamed	-11.1062
▁climbing	-11.1068
▁watches	-11.1075
▁risky	-11.1082
▁websites	-11.1099
▁closest	-11.1111
▁rumors	-11.1166
▁pencils	-11.1213
▁exams	-11.1216
▁dep	-11.1259
▁addressed	-11.1264
▁reads	-11.1267
▁ab	-11.1353
▁owes	-11.1374
sh	-11.138
▁bu	-11.1394
ole	-11.142
ster	-11.1493
▁scar	-11.1494
▁desire	-11.1504
co	-11.1504
▁retire	-11.154
▁decisions	-11.1541
▁judg	-11.1555
▁swam	-11.1555
▁ones	-11.1555
▁bullet	-11.1556
▁politician	-11.1556
▁cigarette	-11.1558
go	-11.1575
▁desert	-11.1577
▁delay	-11.1578
als	-11.1596
▁east	-11.1604
▁flow	-11.1605
▁ob	-11.1606
▁fur	-11.1607
▁occur	-11.1607
▁skate	-11.1607
▁access	-11.1608
▁adapt	-11.1608
▁architect	-11.1608
▁budget	-11.1608
▁carrots	-11.1608
▁celebrating	-11.1608
▁circumstances	-11.1608
▁disobey	-11.1608
▁essential	-11.1608
▁honey	-11.1608
▁indoors	-11.1608
▁laptop	-11.1608
▁neck	-11.1608
▁necklace	-11.1608
▁nowadays	-11.1608
▁outdoors	-11.1608
▁pajamas	-11.1608
▁physical	-11.1608
▁railroad	-11.1608
▁remote	-11.1608
▁surface	-11.1608
▁thumb	-11.1608
▁eighteen	-11.1608
▁appetite	-11.1608
▁composition	-11.1608
▁flashlight	-11.1608
▁mercy	-11.1608
▁toothache	-11.1608
▁pregnant	-11.1608
▁lamp	-11.1608
▁basic	-11.1608
▁flies	-11.1608
▁prime	-11.1608
▁seventeen	-11.1608
▁permitted	-11.1608
▁sec	-11.1608
▁tolerate	-11.1608
▁tiny	-11.1608
▁influence	-11.1609
▁otherwise	-11.1609
▁scenery	-11.1609
▁objection	-11.1609
▁prom	-11.161
▁national	-11.1611
▁grave	-11.1614
▁discouraged	-11.1615
▁crops	-11.1624
▁pickpockets	-11.1624
▁clu	-11.1626
▁qualified	-11.1628
▁clothing	-11.163
▁addicted	-11.163
▁approaching	-11.1631
▁slightly	-11.1632
▁insisted	-11.1634
▁disappointing	-11.1635
▁sword	-11.1635
▁deserted	-11.1638
▁elephants	-11.164
▁spelling	-11.1653
▁becomes	-11.1656
▁faces	-11.1661
▁hopeless	-11.1672
▁payment	-11.1689
▁gained	-11.1689
▁dish	-11.1695
ill	-11.1701
▁sings	-11.1704
▁blown	-11.1708
▁west	-11.1729
▁ends	-11.173
▁numbers	-11.1757
▁agrees	-11.1777
▁aboard	-11.1785
▁players	-11.1825
▁bothered	-11.184
▁gr	-11.1846
idden	-11.1875
▁aid	-11.1877
nt	-11.1879
▁gifts	-11.1896
▁laws	-11.1915
▁tests	-11.1987
▁sides	-11.1992
wards	-11.2052
ak	-11.2052
▁seconds	-11.2117
▁wa	-11.2155
▁cheek	-11.2181
▁plate	-11.2181
▁affair	-11.2181
▁curtain	-11.2181
▁disturb	-11.2182
▁nail	-11.2185
▁honor	-11.2201
▁faint	-11.2203
▁abandon	-11.2203
▁register	-11.2204
▁confirm	-11.2204
▁h	-11.2217
▁absolute	-11.2218
▁approve	-11.2219
▁confuse	-11.2219
▁bore	-11.2219
▁branch	-11.223
▁fox	-11.2231
▁attract	-11.2231
▁adjust	-11.2233
▁alibi	-11.2233
▁alphabet	-11.2233
▁arriving	-11.2233
▁arrow	-11.2233
▁awkward	-11.2233
▁bathtub	-11.2233
▁compliment	-11.2233
▁drowning	-11.2233
▁gamble	-11.2233
▁harvest	-11.2233
▁international	-11.2233
▁poverty	-11.2233
▁religion	-11.2233
▁renew	-11.2233
▁response	-11.2233
▁sleeve	-11.2233
▁unemployed	-11.2233
▁whispered	-11.2233
▁sunset	-11.2233
▁battery	-11.2233
▁motivated	-11.2233
▁gym	-11.2233
▁cease	-11.2233
▁prince	-11.2233
▁punch	-11.2233
▁ignorant	-11.2233
▁princess	-11.2233
▁motion	-11.2233
▁path	-11.2233
▁alice	-11.2233
▁interpreter	-11.2233
▁eyesight	-11.2234
▁alcoholic	-11.2234
▁greek	-11.2234
▁env	-11.2235
▁surgeon	-11.2235
▁european	-11.2235
▁classical	-11.2235
▁active	-11.2236
▁consideration	-11.2237
▁warmth	-11.2237
▁threatening	-11.2237
▁based	-11.2238
▁joy	-11.2238
▁captured	-11.2239
▁amends	-11.2242
▁separated	-11.2244
▁wealthy	-11.2247
▁copies	-11.225
▁blocked	-11.2255
▁backwards	-11.2256
▁delivered	-11.2259
▁forg	-11.2261
▁registered	-11.2263
▁goat	-11.2268
▁annoyed	-11.2273
▁pounds	-11.2273
▁earned	-11.2277
▁foreigners	-11.2277
▁acceptable	-11.2282
▁adults	-11.2293
▁teenagers	-11.2297
▁predict	-11.2298
▁hardest	-11.2307
▁welcomed	-11.2311
▁tasted	-11.2326
▁sour	-11.2334
▁landed	-11.2336
▁added	-11.2343
▁bow	-11.2352
▁suggesting	-11.2353
▁parts	-11.2359
▁files	-11.236
▁considering	-11.2363
▁pretending	-11.2369
▁fined	-11.2384
▁fooled	-11.2391
▁demands	-11.2416
▁metal	-11.2438
▁steps	-11.2446
▁trains	-11.2454
▁appreciated	-11.2456
▁dealing	-11.2477
▁en	-11.249
ked	-11.2511
▁ending	-11.2529
▁slippe	-11.2541
ade	-11.2583
ice	-11.2658
ock	-11.2663
ities	-11.2674
▁ba	-11.2681
ining	-11.2737
▁accompan	-11.2741
▁weekends	-11.2747
▁hurting	-11.2796
▁bee	-11.2811
▁stain	-11.2816
les	-11.2829
secure	-11.2836
j	-11.2838
▁diamond	-11.2846
▁blanket	-11.2847
▁textbook	-11.2848
▁partner	-11.2869
▁load	-11.2869
▁insist	-11.287
▁frustrat	-11.2879
▁stops	-11.2882
▁proper	-11.2885
▁cheerful	-11.2885
▁determine	-11.2886
per	-11.2887
▁styl	-11.2887
▁fasten	-11.2888
▁mark	-11.2888
▁fuss	-11.2888
▁fift	-11.289
erland	-11.2895
▁threat	-11.2898
▁swit	-11.2899
▁horr	-11.2899
▁nucle	-11.2899
▁bluffing	-11.2899
▁chicago	-11.2899
▁disaster	-11.2899
▁essay	-11.2899
▁exaggerate	-11.2899
▁facebook	-11.2899
▁flexible	-11.2899
▁genuine	-11.2899
▁heavily	-11.2899
▁hilarious	-11.2899
▁level	-11.2899
▁lincoln	-11.2899
▁literature	-11.2899
▁loving	-11.2899
▁ordinary	-11.2899
▁pianist	-11.2899
▁pollution	-11.2899
▁proverb	-11.2899
▁roommate	-11.2899
▁servant	-11.2899
▁statue	-11.2899
▁subscribe	-11.2899
▁thieves	-11.2899
▁thursday	-11.2899
▁valid	-11.2899
▁ladies	-11.2899
▁latin	-11.2899
▁manual	-11.2899
▁trousers	-11.2899
▁gently	-11.2899
▁robot	-11.2899
▁competition	-11.2899
▁traitor	-11.2899
▁plumber	-11.2899
▁panicked	-11.2899
▁shaking	-11.2899
▁destination	-11.2899
▁charity	-11.2899
arious	-11.2899
▁shade	-11.2899
▁trapped	-11.2899
▁priority	-11.29
▁skeptical	-11.29
▁queen	-11.29
▁tomatoes	-11.29
▁exit	-11.29
▁stage	-11.29
▁scarf	-11.29
▁fries	-11.29
▁dragg	-11.29
▁role	-11.29
▁remarkable	-11.2901
▁memories	-11.2902
▁cd	-11.2903
▁hint	-11.2903
▁overwork	-11.2903
▁sixty	-11.2903
▁pace	-11.2904
▁tempted	-11.2905
▁spilled	-11.2905
▁sandwiches	-11.2905
▁cloudy	-11.2906
▁deceived	-11.2906
▁daily	-11.2906
▁outraged	-11.2907
▁sir	-11.2908
▁gray	-11.2908
▁command	-11.2909
▁menu	-11.291
▁anytime	-11.2911
▁suitable	-11.2914
▁director	-11.2914
▁standards	-11.2915
ations	-11.2921
▁selfie	-11.2929
▁mile	-11.2946
▁shooting	-11.2968
▁drawing	-11.297
▁normally	-11.297
▁alternatives	-11.2975
▁repeated	-11.2978
▁sink	-11.2985
▁volunteers	-11.2986
▁tires	-11.2999
▁career	-11.3009
▁murdered	-11.3022
▁stands	-11.3034
tidy	-11.3038
ama	-11.3056
▁poems	-11.3056
▁inch	-11.3093
time	-11.3111
▁para	-11.3203
▁dig	-11.3221
▁bottles	-11.3224
▁pens	-11.3288
▁faults	-11.3293
▁wh	-11.3294
▁forgiven	-11.3302
▁messages	-11.3304
▁div	-11.3309
men	-11.332
rain	-11.3336
▁lawyers	-11.3337
▁smokes	-11.3423
having	-11.3431
▁plu	-11.3438
med	-11.3538
judged	-11.3549
▁presents	-11.3561
▁monkey	-11.3562
▁blonde	-11.3562
▁term	-11.3564
▁cheat	-11.3564
▁deals	-11.3571
▁deliver	-11.3572
▁defeat	-11.3583
▁spoil	-11.3583
▁destroy	-11.3584
▁port	-11.359
▁thorough	-11.3597
▁guarantee	-11.3599
▁reserve	-11.3599
no	-11.36
▁propose	-11.3604
▁achieve	-11.3609
▁shows	-11.361
▁reduce	-11.3611
▁conscious	-11.3613
▁appeal	-11.3614
▁quarrel	-11.3614
▁curiosity	-11.3614
▁defense	-11.3614
▁delicate	-11.3614
▁devastated	-11.3614
▁envious	-11.3614
▁gorgeous	-11.3614
▁greedy	-11.3614
▁haunted	-11.3614
▁increasing	-11.3614
▁leather	-11.3614
▁overreact	-11.3614
▁process	-11.3614
▁pronunciation	-11.3614
▁reputation	-11.3614
▁rotten	-11.3614
▁squirrel	-11.3614
▁sunrise	-11.3614
▁expose	-11.3614
▁puppy	-11.3614
▁lottery	-11.3614
▁italian	-11.3614
▁junk	-11.3614
▁community	-11.3614
▁image	-11.3614
▁trumpet	-11.3614
▁barber	-11.3614
▁romantic	-11.3614
lient	-11.3614
▁property	-11.3614
▁panic	-11.3614
▁chores	-11.3614
▁collection	-11.3614
▁knitting	-11.3615
▁expectations	-11.3615
▁conduct	-11.3616
▁satisfactory	-11.3616
▁fatter	-11.3616
▁pure	-11.3616
▁medication	-11.3616
▁wheat	-11.3618
▁opposed	-11.3619
▁priest	-11.3621
▁frost	-11.3622
▁arranged	-11.3626
▁robber	-11.3627
▁unlocked	-11.363
▁temporary	-11.3631
venge	-11.3631
▁forgetful	-11.3631
yster	-11.3632
▁loses	-11.3633
▁liter	-11.3634
▁hostages	-11.3634
▁waiter	-11.3636
▁union	-11.3638
▁increased	-11.3638
▁items	-11.3639
▁loyal	-11.3639
▁justice	-11.3639
▁blowing	-11.3644
▁spiders	-11.3646
▁ants	-11.3653
ink	-11.3673
▁damaged	-11.3679
▁buses	-11.368
▁victims	-11.3684
▁customs	-11.3684
▁uses	-11.3685
▁interrupted	-11.3687
▁rabbits	-11.3691
cing	-11.3693
▁limits	-11.3695
▁actions	-11.3699
▁grounded	-11.3703
ping	-11.3706
▁pets	-11.371
▁nerves	-11.371
▁owned	-11.3715
▁longest	-11.3729
▁mon	-11.3735
▁breathing	-11.3736
▁telephoned	-11.3744
▁loosen	-11.3744
▁records	-11.3764
art	-11.3778
▁habits	-11.379
gy	-11.3821
▁killing	-11.3869
▁checking	-11.3873
rge	-11.3954
worthy	-11.3958
▁slip	-11.3966
▁ref	-11.3966
bus	-11.3986
▁sentences	-11.3991
▁ro	-11.3995
▁notes	-11.3999
▁despi	-11.4031
▁organ	-11.4039
jury	-11.405
▁lean	-11.4054
anta	-11.4069
board	-11.409
▁travels	-11.4109
ense	-11.4162
unny	-11.4178
▁exception	-11.4237
▁situations	-11.424
▁trans	-11.425
way	-11.4273
▁sc	-11.4287
▁rais	-11.429
▁gra	-11.4321
▁collect	-11.433
▁import	-11.4331
▁material	-11.4331
▁espe	-11.4332
▁boil	-11.4332
▁tourist	-11.4333
▁gather	-11.4339
chi	-11.4342
▁pound	-11.4343
going	-11.4351
▁addict	-11.4353
▁betray	-11.4353
▁separate	-11.4353
▁foreigner	-11.4356
▁chew	-11.4362
ency	-11.4369
▁sue	-11.4369
▁oblig	-11.4379
▁lover	-11.4382
cially	-11.4382
▁advertise	-11.4382
▁grad	-11.4383
▁hypnoti	-11.4383
responsibilities	-11.4383
▁atmosphere	-11.4383
▁choir	-11.4383
▁cliff	-11.4383
▁deposit	-11.4383
▁dolphin	-11.4383
▁fabulous	-11.4383
▁female	-11.4383
▁gossip	-11.4383
▁grammar	-11.4383
▁grandparents	-11.4383
▁grapes	-11.4383
▁irrelevant	-11.4383
▁minimum	-11.4383
▁overheard	-11.4383
▁overslept	-11.4383
▁oxygen	-11.4383
▁previous	-11.4383
▁pulse	-11.4383
▁recipe	-11.4383
▁saint	-11.4383
▁selected	-11.4383
▁society	-11.4383
▁symbol	-11.4383
▁terrific	-11.4383
▁warrant	-11.4383
▁wednesday	-11.4383
▁whistle	-11.4383
▁curse	-11.4383
▁leap	-11.4383
▁smashed	-11.4383
▁estate	-11.4383
▁merci	-11.4383
▁sank	-11.4383
▁forecast	-11.4383
▁vague	-11.4383
▁sample	-11.4383
▁carbon	-11.4383
▁amusing	-11.4383
▁typewriter	-11.4383
▁drill	-11.4383
▁sake	-11.4383
▁wings	-11.4383
rived	-11.4383
▁punishment	-11.4383
▁root	-11.4383
▁hiking	-11.4383
▁mexico	-11.4383
▁teens	-11.4384
▁tools	-11.4384
▁lung	-11.4384
▁majority	-11.4384
▁humanity	-11.4384
▁pipe	-11.4384
▁blast	-11.4385
▁policemen	-11.4385
▁precise	-11.4385
▁acquired	-11.4386
▁kidnapped	-11.4386
▁wow	-11.4387
▁mechanic	-11.4387
▁sneaky	-11.4388
▁humiliated	-11.4389
▁shift	-11.439
▁treatment	-11.4391
thless	-11.4391
▁flirting	-11.4392
▁childish	-11.4392
▁insects	-11.4393
▁lips	-11.4393
ial	-11.4394
▁coal	-11.4397
▁heater	-11.4398
▁contribute	-11.4398
▁rebel	-11.4399
▁rifle	-11.44
▁thankful	-11.44
▁located	-11.4402
▁gay	-11.4406
▁disturbing	-11.4408
▁consequences	-11.4409
ngle	-11.441
ible	-11.4411
▁collected	-11.4413
▁dial	-11.4419
▁hunger	-11.4421
▁include	-11.4428
▁measures	-11.4431
▁murderer	-11.4434
▁tricked	-11.4436
▁march	-11.4439
▁independent	-11.4439
▁objected	-11.444
▁textbooks	-11.4442
ma	-11.4444
▁skipp	-11.4454
▁resemble	-11.4456
▁regards	-11.4459
▁skills	-11.4459
▁politely	-11.4461
▁errors	-11.4463
▁knocking	-11.4466
▁directions	-11.4471
▁tricks	-11.4471
▁calculate	-11.4473
▁asian	-11.4495
▁chat	-11.4516
▁lessons	-11.452
▁showing	-11.4552
▁listens	-11.456
▁avoided	-11.4564
imp	-11.4587
▁abuse	-11.4596
▁earthquakes	-11.4599
▁speakers	-11.4629
ie	-11.4665
▁canadians	-11.4666
▁pairs	-11.4666
▁stones	-11.4666
▁voices	-11.4712
▁tent	-11.4718
▁qu	-11.4742
ware	-11.4752
▁sacrifice	-11.4771
▁laughs	-11.4816
day	-11.4817
▁log	-11.4818
ba	-11.4823
▁regrets	-11.4839
▁patients	-11.4843
ashed	-11.4847
▁rat	-11.4858
▁colors	-11.4869
▁causes	-11.487
▁signs	-11.4871
▁vi	-11.4912
▁forgetting	-11.495
▁da	-11.4963
▁cooks	-11.4997
▁seek	-11.5003
▁bees	-11.5004
▁communicate	-11.5015
▁li	-11.5033
▁heads	-11.5063
▁restaurants	-11.508
▁holds	-11.5099
▁economic	-11.5113
▁mar	-11.5118
▁lu	-11.5124
ki	-11.5128
▁block	-11.5134
ition	-11.5143
▁wins	-11.5149
wept	-11.5152
▁disappear	-11.5164
▁frog	-11.5165
▁lion	-11.5167
ham	-11.517
▁develop	-11.5182
▁crush	-11.5186
▁offend	-11.5187
▁bum	-11.519
▁print	-11.5191
▁asia	-11.5191
▁arrange	-11.5197
▁pig	-11.52
▁immediate	-11.5202
lief	-11.5205
▁necessar	-11.5206
▁create	-11.5206
▁examine	-11.5214
▁mosquito	-11.5214
▁happie	-11.5214
▁potato	-11.5214
▁clo	-11.5215
▁lucki	-11.5215
▁labor	-11.5216
▁preach	-11.5216
▁chief	-11.5216
▁impolite	-11.5216
▁spontaneous	-11.5216
▁attorney	-11.5216
▁attribute	-11.5216
▁batteries	-11.5216
▁champagne	-11.5216
▁chopsticks	-11.5216
▁click	-11.5216
▁congress	-11.5216
▁contagious	-11.5216
▁costume	-11.5216
▁embassy	-11.5216
▁extend	-11.5216
▁festival	-11.5216
▁frequently	-11.5216
▁fuel	-11.5216
▁furious	-11.5216
▁handwriting	-11.5216
▁hawaii	-11.5216
▁helmet	-11.5216
▁inherit	-11.5216
▁intelligence	-11.5216
▁january	-11.5216
▁modest	-11.5216
▁overseas	-11.5216
▁salmon	-11.5216
▁saxophone	-11.5216
▁specific	-11.5216
▁sushi	-11.5216
▁toothpaste	-11.5216
▁unknown	-11.5216
▁vacant	-11.5216
▁victory	-11.5216
▁dawn	-11.5216
▁practicing	-11.5216
▁stove	-11.5216
▁stir	-11.5216
▁typical	-11.5216
▁admission	-11.5216
▁reveal	-11.5216
▁trout	-11.5216
▁stiff	-11.5216
▁melted	-11.5216
▁ignorance	-11.5216
▁resume	-11.5216
▁horrified	-11.5216
▁software	-11.5216
▁arrogant	-11.5216
▁prettier	-11.5216
▁section	-11.5216
▁laundry	-11.5217
▁scarce	-11.5217
▁carelessness	-11.5217
▁investment	-11.5218
▁hometown	-11.5218
▁ninety	-11.5218
▁teased	-11.5219
▁inspire	-11.5219
▁destiny	-11.5219
▁shortage	-11.522
▁guitarist	-11.522
▁burnt	-11.5221
▁allergies	-11.5221
▁talkative	-11.5222
▁version	-11.5223
▁protection	-11.5223
▁businessman	-11.5224
▁disgusted	-11.5225
▁struggled	-11.5226
▁plead	-11.5226
▁reserved	-11.5233
▁phrase	-11.5235
▁affected	-11.5235
▁flattered	-11.5239
▁maintain	-11.5239
▁yelled	-11.5239
▁replaced	-11.5239
▁bush	-11.5239
▁negotiations	-11.5241
ors	-11.5241
▁attached	-11.5241
▁cured	-11.5243
▁measure	-11.5246
▁crushed	-11.5247
▁developed	-11.5247
▁counter	-11.5249
▁spoiled	-11.5252
▁behaved	-11.5253
▁printer	-11.5256
▁tape	-11.5256
▁confirmed	-11.5257
▁boo	-11.5257
▁soap	-11.5263
▁filed	-11.5265
▁approached	-11.5268
▁heaven	-11.527
▁interrupting	-11.5274
▁richer	-11.5274
▁ham	-11.528
▁marks	-11.5281
▁cds	-11.5281
▁curtains	-11.5285
▁focused	-11.529
▁windy	-11.5292
▁resources	-11.5294
line	-11.5302
▁searching	-11.5302
▁sting	-11.5307
▁talents	-11.5308
▁fields	-11.5312
▁quitting	-11.5331
▁recommended	-11.5333
▁points	-11.5336
▁weeds	-11.5342
unk	-11.5342
▁guards	-11.5375
om	-11.5382
▁chi	-11.5397
▁rocks	-11.5398
▁comb	-11.5404
▁spin	-11.5405
ened	-11.5413
tor	-11.5414
x	-11.5417
owed	-11.5417
▁pin	-11.5425
▁humans	-11.5425
▁quietly	-11.5445
▁mat	-11.5476
ism	-11.5494
▁announc	-11.5502
▁pe	-11.552
▁rings	-11.5544
▁embarrass	-11.5551
▁beers	-11.5567
▁meter	-11.5583
pplies	-11.5585
ory	-11.5613
▁experiences	-11.5665
▁surprises	-11.5669
▁fund	-11.5679
lor	-11.5686
▁cond	-11.5705
over	-11.5716
quee	-11.5718
▁j	-11.5809
ffects	-11.5834
▁cared	-11.5874
cked	-11.5911
▁schools	-11.5927
light	-11.5935
▁owner	-11.596
▁asks	-11.596
▁imagin	-11.5966
▁po	-11.5968
▁minded	-11.5987
▁ador	-11.6012
hes	-11.6018
▁stores	-11.6037
▁russia	-11.6045
ends	-11.6051
room	-11.6051
ner	-11.606
▁blam	-11.6064
wood	-11.6066
proof	-11.6066
hand	-11.6066
▁protest	-11.6072
▁refer	-11.6072
▁comic	-11.6073
▁effect	-11.6073
▁lemon	-11.6073
▁snack	-11.6074
▁elephant	-11.6075
▁frighten	-11.6075
bo	-11.6087
▁discover	-11.6088
▁discre	-11.6088
▁impress	-11.6094
▁inform	-11.6095
▁punish	-11.6095
▁parent	-11.6097
▁environment	-11.6097
▁sew	-11.6106
▁produce	-11.611
▁brief	-11.611
▁investigat	-11.6111
▁aspirin	-11.6112
be	-11.6116
▁tear	-11.6124
▁humid	-11.6125
▁represent	-11.6125
▁slamm	-11.6125
▁contradict	-11.6125
▁ammunition	-11.6125
▁astronomy	-11.6125
▁await	-11.6125
▁babies	-11.6125
▁blossom	-11.6125
▁california	-11.6125
▁catholic	-11.6125
▁channel	-11.6125
▁concluded	-11.6125
▁conscientious	-11.6125
▁conservative	-11.6125
▁declare	-11.6125
▁disguise	-11.6125
▁distinguish	-11.6125
▁emotions	-11.6125
▁errand	-11.6125
▁escort	-11.6125
▁existence	-11.6125
▁fbi	-11.6125
▁homesick	-11.6125
▁improving	-11.6125
▁incorrect	-11.6125
▁inevitable	-11.6125
▁injuries	-11.6125
▁install	-11.6125
▁instinct	-11.6125
▁invention	-11.6125
▁irresponsible	-11.6125
▁knives	-11.6125
▁military	-11.6125
▁orphan	-11.6125
▁procedure	-11.6125
▁promotion	-11.6125
▁purchase	-11.6125
▁reception	-11.6125
▁rugby	-11.6125
▁sensible	-11.6125
▁september	-11.6125
▁shadow	-11.6125
▁technology	-11.6125
▁treasure	-11.6125
▁trigger	-11.6125
▁turtles	-11.6125
▁unnecessary	-11.6125
▁watermelon	-11.6125
▁whistling	-11.6125
▁wisdom	-11.6125
▁accusing	-11.6125
▁delete	-11.6125
▁nodded	-11.6125
▁silk	-11.6125
▁crafty	-11.6125
▁whereabouts	-11.6125
▁wrap	-11.6125
▁rational	-11.6125
▁stomachache	-11.6125
▁bald	-11.6125
▁babysitter	-11.6125
▁colum	-11.6125
▁communication	-11.6125
▁hud	-11.6125
▁snowstorm	-11.6125
▁reluctant	-11.6125
▁mild	-11.6126
▁campus	-11.6126
omic	-11.6126
▁pink	-11.6126
▁delu	-11.6126
▁mass	-11.6126
▁sixteen	-11.6126
▁analy	-11.6126
▁beans	-11.6127
▁riddle	-11.6127
▁gang	-11.6127
▁mosquitoes	-11.6128
▁shovel	-11.6128
▁overlook	-11.6128
▁accountant	-11.6128
▁caution	-11.6128
▁mule	-11.6129
▁chairman	-11.6129
horn	-11.613
▁prior	-11.6131
▁suspended	-11.6131
▁amused	-11.6132
▁snowman	-11.6132
▁basis	-11.6133
▁kilometers	-11.6133
▁bible	-11.6133
▁ladder	-11.6134
▁practical	-11.6134
▁afterwards	-11.6135
▁wandered	-11.6135
▁billion	-11.6135
▁shouting	-11.6136
▁beaten	-11.6136
▁reality	-11.6137
▁slave	-11.6138
▁gum	-11.6139
▁elderly	-11.6139
▁designed	-11.6139
▁robbery	-11.6141
▁speechless	-11.6142
▁medal	-11.6145
▁outcome	-11.6146
▁worthless	-11.6148
▁span	-11.6152
▁sinking	-11.6154
▁reduced	-11.6154
▁traditional	-11.6161
▁included	-11.6161
▁hesitated	-11.6168
▁faithful	-11.6168
▁predicted	-11.6171
▁sheets	-11.6177
▁safer	-11.6178
▁barked	-11.618
▁blocks	-11.6182
▁chase	-11.6183
▁tighten	-11.6192
unt	-11.6196
▁tightly	-11.6199
▁naturally	-11.62
▁affairs	-11.6201
put	-11.6203
▁entertain	-11.6204
▁politicians	-11.6206
▁requested	-11.6221
▁privately	-11.6223
▁lowered	-11.6224
▁landing	-11.6229
▁cheered	-11.6229
▁relaxing	-11.623
▁injury	-11.6244
▁comments	-11.6251
▁nails	-11.6251
▁entering	-11.6252
ped	-11.6259
▁stare	-11.6265
▁charged	-11.6268
▁ma	-11.6271
▁savings	-11.6276
▁excused	-11.6285
▁leads	-11.6285
▁correctly	-11.6288
▁criminals	-11.63
▁sheet	-11.6306
table	-11.631
▁forces	-11.6318
▁smoked	-11.6334
▁stays	-11.6337
▁pages	-11.6355
act	-11.6371
rea	-11.6381
▁shortly	-11.6407
▁bears	-11.6421
▁flights	-11.6446
▁van	-11.645
▁heading	-11.6456
▁touching	-11.6481
▁colds	-11.6501
▁crimes	-11.6506
▁bur	-11.651
win	-11.6515
dge	-11.6567
▁finishing	-11.6576
ripped	-11.6577
▁host	-11.6611
▁phoned	-11.6612
▁differences	-11.6696
▁guns	-11.6716
dding	-11.6718
▁stat	-11.6722
▁arrives	-11.6722
▁buys	-11.6725
tar	-11.6737
▁sets	-11.6794
▁roads	-11.6825
mb	-11.693
nding	-11.6932
erous	-11.6956
ik	-11.6959
▁pan	-11.6979
▁checks	-11.6998
▁planes	-11.7008
▁compa	-11.7034
rank	-11.7038
▁rub	-11.7038
bra	-11.7039
well	-11.704
▁receiv	-11.7048
▁ca	-11.7065
▁hunt	-11.7066
point	-11.7066
▁employ	-11.7067
▁opponent	-11.7072
▁bruise	-11.7072
▁blush	-11.7073
▁degree	-11.7075
▁coin	-11.7077
▁wage	-11.7081
cit	-11.7084
▁origin	-11.7087
tained	-11.7088
▁grade	-11.7091
▁stress	-11.7093
▁mix	-11.7094
▁attach	-11.7096
▁suck	-11.7098
▁fin	-11.7101
▁elder	-11.711
▁frank	-11.7111
▁guilt	-11.7115
▁bless	-11.7117
▁squ	-11.7119
▁numb	-11.7122
▁knit	-11.7123
▁civil	-11.7124
▁educat	-11.7124
icky	-11.7124
▁champion	-11.7125
▁confide	-11.7125
ficient	-11.7125
▁arabic	-11.7125
▁astonished	-11.7125
▁blink	-11.7125
▁brilliant	-11.7125
▁chimney	-11.7125
▁claus	-11.7125
▁clerk	-11.7125
▁congratulations	-11.7125
▁convenience	-11.7125
▁cotton	-11.7125
▁council	-11.7125
▁dishonest	-11.7125
▁download	-11.7125
▁earliest	-11.7125
▁enormous	-11.7125
▁euros	-11.7125
▁extent	-11.7125
▁fulfill	-11.7125
▁heavier	-11.7125
▁hokkaido	-11.7125
▁individual	-11.7125
▁offensive	-11.7125
▁permanent	-11.7125
▁pharmacy	-11.7125
▁railway	-11.7125
▁refund	-11.7125
▁sarcas	-11.7125
▁semester	-11.7125
▁spaghetti	-11.7125
▁spicy	-11.7125
▁spinach	-11.7125
▁stroke	-11.7125
▁sweep	-11.7125
▁transfer	-11.7125
▁troops	-11.7125
▁unmarried	-11.7125
▁vienna	-11.7125
▁vocation	-11.7125
▁waitress	-11.7125
▁wolf	-11.7125
▁worries	-11.7125
▁anonymous	-11.7125
▁bassoon	-11.7125
▁conscience	-11.7125
▁inappropriate	-11.7125
▁potential	-11.7125
▁technical	-11.7125
▁distant	-11.7125
▁obsess	-11.7125
▁shelter	-11.7125
▁unturned	-11.7125
▁washington	-11.7125
▁invade	-11.7125
▁microphone	-11.7125
▁opportunities	-11.7125
▁dread	-11.7125
▁alert	-11.7125
▁conflict	-11.7125
▁impos	-11.7125
▁region	-11.7125
▁revolution	-11.7125
▁title	-11.7125
▁coll	-11.7125
pathetic	-11.7125
▁demonstration	-11.7125
▁arch	-11.7125
▁cabinet	-11.7125
▁massage	-11.7125
▁pork	-11.7125
▁strawberries	-11.7125
▁broad	-11.7126
▁shining	-11.7126
▁mansion	-11.7126
▁construction	-11.7126
▁intrigued	-11.7126
▁flunk	-11.7126
▁philosophy	-11.7127
▁cellar	-11.7127
▁achievement	-11.7127
▁realistic	-11.7128
▁sei	-11.7128
ehead	-11.7128
▁novelist	-11.7129
▁unbelievable	-11.713
▁moral	-11.713
▁mustache	-11.713
▁rapidly	-11.7131
▁winner	-11.7132
▁specialist	-11.7132
▁photographer	-11.7133
▁collapsed	-11.7133
▁congratulated	-11.7133
ison	-11.7134
▁creepy	-11.7134
▁trace	-11.7134
▁review	-11.7135
▁startled	-11.7136
▁wiser	-11.7139
▁drum	-11.7139
▁delivery	-11.7141
▁glo	-11.7141
▁stream	-11.7142
▁lick	-11.7142
▁resignation	-11.7143
▁shouted	-11.7143
▁varie	-11.7144
tute	-11.7145
▁sewing	-11.7148
▁muscles	-11.715
ime	-11.7151
▁boiling	-11.7152
▁participated	-11.7153
▁boiled	-11.7166
▁jar	-11.7169
▁relatives	-11.7172
▁dresses	-11.7175
▁cable	-11.7178
▁volunteering	-11.7178
▁defeated	-11.7179
▁effects	-11.7183
▁pigs	-11.7188
▁corn	-11.7193
▁materials	-11.7193
▁imports	-11.7193
▁speeding	-11.7195
▁limited	-11.7196
lve	-11.7197
▁x	-11.7198
lly	-11.7198
▁shine	-11.7199
▁packing	-11.72
▁partners	-11.7204
▁fashioned	-11.7206
▁lighter	-11.7208
▁scam	-11.7214
▁sung	-11.7223
▁alarmed	-11.7231
▁heights	-11.7232
dled	-11.7236
▁farther	-11.7236
▁fad	-11.7244
▁painter	-11.7245
ga	-11.7254
▁bent	-11.7257
hori	-11.7257
▁severe	-11.7258
▁picky	-11.726
▁nations	-11.726
use	-11.7262
▁sock	-11.7264
▁ce	-11.7276
aries	-11.7295
▁vision	-11.7318
▁visits	-11.7327
▁blinded	-11.7334
▁dolls	-11.7336
▁sip	-11.7364
▁groups	-11.7375
▁fo	-11.7384
ches	-11.7386
▁saturdays	-11.7387
▁bars	-11.7388
▁complains	-11.7399
▁sin	-11.7411
▁chocolates	-11.747
ipping	-11.7471
▁evacuate	-11.7483
▁rage	-11.7485
▁troubled	-11.7517
iv	-11.7536
▁reward	-11.7548
▁lightly	-11.7552
▁explaining	-11.7568
▁taxis	-11.7619
▁tap	-11.7655
▁pat	-11.7741
ib	-11.7751
▁acts	-11.7806
▁counts	-11.7843
▁thoughts	-11.786
▁dangers	-11.7888
▁noises	-11.7906
aking	-11.7934
ttle	-11.7947
▁cor	-11.7958
▁com	-11.7958
ler	-11.7989
▁cases	-11.7994
come	-11.7996
ld	-11.7996
ided	-11.8
enses	-11.8066
▁ache	-11.8089
▁cakes	-11.8106
▁choos	-11.8113
lar	-11.8163
nails	-11.8175
▁cloud	-11.8176
reasonable	-11.8178
down	-11.8178
▁concentrat	-11.8181
▁sailor	-11.8183
▁client	-11.8184
▁spider	-11.8186
▁relative	-11.8186
▁yell	-11.8186
▁employee	-11.8186
▁passenger	-11.8187
lic	-11.8202
▁flinch	-11.8204
▁blackmail	-11.8205
▁adopt	-11.8206
▁flatter	-11.8207
▁steer	-11.8215
▁fee	-11.822
▁compete	-11.822
▁balance	-11.8221
▁negotiate	-11.8221
▁explode	-11.8221
▁acknowledge	-11.8222
▁starve	-11.8227
arine	-11.8228
▁bull	-11.8228
▁dispos	-11.8233
▁profit	-11.8233
▁kil	-11.8236
▁yo	-11.8236
▁roman	-11.8236
▁straw	-11.8236
lthy	-11.8236
▁equi	-11.8236
adequate	-11.8236
undant	-11.8236
▁acquitted	-11.8236
▁advertising	-11.8236
▁agenda	-11.8236
▁agriculture	-11.8236
▁announcement	-11.8236
▁approval	-11.8236
▁barefoot	-11.8236
▁bartender	-11.8236
▁brick	-11.8236
▁britain	-11.8236
▁chemistry	-11.8236
▁chubby	-11.8236
▁december	-11.8236
▁device	-11.8236
▁display	-11.8236
▁ditch	-11.8236
▁drastic	-11.8236
▁encounter	-11.8236
▁entitle	-11.8236
▁evident	-11.8236
▁excitement	-11.8236
▁exercising	-11.8236
▁extrovert	-11.8236
▁fascinated	-11.8236
▁garlic	-11.8236
▁gasoline	-11.8236
▁global	-11.8236
▁grandpa	-11.8236
▁heartbroken	-11.8236
▁hurricane	-11.8236
▁indicate	-11.8236
▁irritating	-11.8236
▁kanji	-11.8236
▁kobe	-11.8236
▁location	-11.8236
▁luxury	-11.8236
▁marathon	-11.8236
▁mask	-11.8236
▁nauseous	-11.8236
▁overcoat	-11.8236
▁owl	-11.8236
▁paranoid	-11.8236
▁period	-11.8236
▁physics	-11.8236
▁resort	-11.8236
▁scandal	-11.8236
▁seafood	-11.8236
▁shakespeare	-11.8236
▁species	-11.8236
▁spirits	-11.8236
▁sunshine	-11.8236
▁superior	-11.8236
▁suspicion	-11.8236
▁sympathy	-11.8236
▁thrilled	-11.8236
▁tissue	-11.8236
▁tuesday	-11.8236
▁unique	-11.8236
▁unpleasant	-11.8236
▁virus	-11.8236
▁volleyball	-11.8236
▁whatsoever	-11.8236
▁outfit	-11.8236
▁dull	-11.8236
▁steam	-11.8236
▁steel	-11.8236
▁ankle	-11.8236
▁backyard	-11.8236
▁stew	-11.8236
▁biology	-11.8236
▁identity	-11.8236
▁closing	-11.8236
▁quote	-11.8236
▁scrap	-11.8236
▁diplomat	-11.8236
▁basement	-11.8236
▁description	-11.8237
▁guts	-11.8237
▁magician	-11.8237
▁dorm	-11.8237
▁wrist	-11.8237
▁peas	-11.8237
▁jet	-11.8237
▁link	-11.8237
▁pearl	-11.8237
▁pierced	-11.8237
▁stressful	-11.8237
▁salesman	-11.8237
▁objective	-11.8237
▁flute	-11.8237
▁passion	-11.8238
▁alter	-11.8238
▁broom	-11.8238
itive	-11.8238
▁slavery	-11.8238
▁wig	-11.8238
▁digest	-11.8239
▁restrain	-11.8239
▁dinosaurs	-11.824
▁controlled	-11.824
▁considerate	-11.824
▁cello	-11.8241
▁countryside	-11.8241
▁civili	-11.8241
▁crook	-11.8242
▁snickering	-11.8242
▁expression	-11.8243
▁doubtful	-11.8243
▁brightest	-11.8243
▁fellow	-11.8243
▁golden	-11.8244
▁housework	-11.8244
test	-11.8245
▁worm	-11.8245
▁hospitality	-11.8245
▁launched	-11.8245
▁fashionable	-11.8246
▁lifetime	-11.8246
▁runner	-11.8247
▁ripe	-11.8247
▁growth	-11.8248
ise	-11.8249
▁statement	-11.8249
▁define	-11.8249
▁sickness	-11.8251
▁former	-11.8253
▁administrat	-11.8254
▁sober	-11.8254
▁crawling	-11.8254
▁fry	-11.8255
▁fist	-11.8255
▁sailing	-11.8256
▁stabb	-11.8257
▁stinks	-11.8258
▁kilos	-11.8258
▁rod	-11.8258
▁lid	-11.8258
▁separately	-11.8259
▁hay	-11.826
▁fr	-11.8264
▁gathering	-11.8267
ital	-11.8267
▁blackmailed	-11.8267
▁olympics	-11.827
ight	-11.8271
▁mixed	-11.8271
▁july	-11.8272
▁pier	-11.8272
▁created	-11.8272
▁cast	-11.8272
▁chopp	-11.8273
▁duck	-11.8273
▁locker	-11.8274
▁protested	-11.8275
▁tales	-11.8278
▁buck	-11.828
▁hunter	-11.828
oda	-11.8282
▁tigers	-11.8282
▁male	-11.829
▁conve	-11.8295
▁flooded	-11.83
▁lemons	-11.8301
▁completed	-11.831
▁advanced	-11.8312
▁exceptions	-11.8314
▁hy	-11.8315
▁react	-11.8316
▁va	-11.8318
▁brake	-11.8318
▁monkeys	-11.8319
▁responded	-11.8326
▁tub	-11.833
▁cheeks	-11.8331
▁plates	-11.8331
▁sticky	-11.8334
ph	-11.8336
▁bugg	-11.8337
▁desires	-11.8339
▁conc	-11.8346
▁repl	-11.8348
▁whales	-11.835
▁bones	-11.835
rous	-11.8368
ished	-11.8372
▁wink	-11.8375
arse	-11.8385
▁mug	-11.8395
▁colder	-11.8405
▁observe	-11.8418
▁behaves	-11.8418
▁intentions	-11.8431
▁obeyed	-11.8433
▁towels	-11.8437
pt	-11.8467
▁plot	-11.8469
▁airplanes	-11.8474
▁homeless	-11.8485
▁spit	-11.852
▁forms	-11.8533
teen	-11.854
▁pee	-11.8541
▁prov	-11.8544
▁suspects	-11.8556
▁traveler	-11.8566
▁bites	-11.8579
bul	-11.8582
▁gifted	-11.8586
▁joining	-11.8598
▁secretly	-11.8619
▁rank	-11.8627
gen	-11.8632
▁corrected	-11.8652
que	-11.8659
right	-11.8672
▁misunderstand	-11.8688
▁heroin	-11.8691
nder	-11.8699
▁museums	-11.8727
▁powers	-11.8727
▁formal	-11.8778
▁sail	-11.8781
rid	-11.8786
py	-11.8795
▁fl	-11.8808
▁swims	-11.8827
▁liars	-11.883
▁gu	-11.8844
ge	-11.8887
▁snowed	-11.8915
ucked	-11.8958
▁killer	-11.8963
cal	-11.9002
tible	-11.9005
istic	-11.9045
▁tank	-11.9086
▁regrett	-11.9182
night	-11.9183
live	-11.9209
awa	-11.9238
▁snap	-11.9273
▁reporter	-11.9297
lined	-11.931
▁questioning	-11.9317
saw	-11.9372
amp	-11.9383
▁crow	-11.9388
▁snows	-11.9392
▁pla	-11.9393
ord	-11.9396
land	-11.9398
ountain	-11.9418
▁ignor	-11.9418
▁cope	-11.9421
▁hike	-11.9426
ambitious	-11.9427
woke	-11.9427
fire	-11.9427
stand	-11.9428
mary	-11.9432
▁adventure	-11.9433
▁napkin	-11.9433
▁instrument	-11.9434
▁earring	-11.9434
▁temple	-11.9434
▁tiger	-11.9435
▁tradition	-11.9436
▁snake	-11.9436
▁invest	-11.9452
▁depart	-11.9454
▁unlock	-11.9456
▁rip	-11.9464
▁undress	-11.9465
▁crawl	-11.9466
▁instant	-11.9471
▁release	-11.9472
▁sex	-11.9475
▁creep	-11.9475
▁invit	-11.9476
▁jo	-11.9476
▁peaceful	-11.9476
▁critic	-11.9482
▁yea	-11.9484
▁psych	-11.9485
▁typi	-11.9485
appointed	-11.9486
▁blank	-11.9486
rench	-11.9486
▁flash	-11.9486
▁cigar	-11.9486
fected	-11.9486
niversa	-11.9486
▁infuriat	-11.9486
▁flavor	-11.9486
▁preserv	-11.9486
▁revolt	-11.9486
iggled	-11.9486
obbing	-11.9486
▁activities	-11.9486
▁activity	-11.9486
▁arrival	-11.9486
▁ashtray	-11.9486
▁assignment	-11.9486
▁athletic	-11.9486
▁barbecue	-11.9486
▁beggar	-11.9486
▁believing	-11.9486
▁blog	-11.9486
▁briefcase	-11.9486
▁bulb	-11.9486
▁butterflies	-11.9486
▁calendar	-11.9486
▁chapter	-11.9486
▁chemical	-11.9486
▁courteous	-11.9486
▁deceased	-11.9486
▁democracy	-11.9486
▁depressing	-11.9486
▁devil	-11.9486
▁digging	-11.9486
▁doorbell	-11.9486
▁elbow	-11.9486
▁february	-11.9486
▁function	-11.9486
▁hairstyle	-11.9486
▁halloween	-11.9486
▁handbag	-11.9486
▁honeymoon	-11.9486
▁identify	-11.9486
▁inconvenience	-11.9486
▁influential	-11.9486
▁isolated	-11.9486
▁jewelry	-11.9486
▁kitten	-11.9486
▁mahjong	-11.9486
▁mammal	-11.9486
▁monitor	-11.9486
▁mutual	-11.9486
▁nephew	-11.9486
▁palace	-11.9486
▁peanuts	-11.9486
▁popcorn	-11.9486
▁raincoat	-11.9486
▁satisfy	-11.9486
▁scientific	-11.9486
▁screen	-11.9486
▁shark	-11.9486
▁signature	-11.9486
▁skating	-11.9486
▁somewhat	-11.9486
▁stadium	-11.9486
▁stalling	-11.9486
▁steady	-11.9486
▁strenuous	-11.9486
▁suburbs	-11.9486
▁sympathetic	-11.9486
▁telescope	-11.9486
▁thermometer	-11.9486
▁titanic	-11.9486
▁tunnel	-11.9486
▁turkey	-11.9486
▁unbuttoned	-11.9486
▁universal	-11.9486
▁vitamin	-11.9486
▁voyage	-11.9486
▁widow	-11.9486
▁worthwhile	-11.9486
▁hiring	-11.9486
▁rinse	-11.9486
▁spouse	-11.9486
▁hacksaw	-11.9486
▁gentlemen	-11.9486
▁fundamental	-11.9486
▁moron	-11.9486
▁tragedy	-11.9486
▁karate	-11.9486
oids	-11.9486
▁twist	-11.9486
▁pacific	-11.9486
▁dissatisfied	-11.9486
▁solid	-11.9486
xim	-11.9487
▁assertive	-11.9487
▁monster	-11.9487
▁flour	-11.9487
▁fingernails	-11.9487
▁chopin	-11.9487
nsured	-11.9487
▁melting	-11.9487
▁volcano	-11.9487
▁pinch	-11.9487
▁consciousness	-11.9487
▁theft	-11.9487
▁judgment	-11.9487
▁protesters	-11.9487
▁label	-11.9487
▁unbearable	-11.9487
▁intentionally	-11.9487
▁reaction	-11.9487
▁fuse	-11.9488
▁penny	-11.9488
▁sunlight	-11.9488
▁worship	-11.9488
▁num	-11.9488
▁judgement	-11.9488
▁pole	-11.9488
▁prediction	-11.9488
▁western	-11.9489
▁restroom	-11.9489
▁testify	-11.9489
▁onions	-11.949
▁eyebrows	-11.949
▁bakery	-11.949
▁kite	-11.9491
▁pry	-11.9491
▁attentive	-11.9491
▁doghouse	-11.9491
ument	-11.9491
▁applauded	-11.9493
▁glue	-11.9493
aki	-11.9493
▁improvement	-11.9493
▁obligation	-11.9493
▁alley	-11.9494
▁server	-11.9494
▁anticipate	-11.9495
▁knot	-11.9496
▁fourth	-11.9496
▁hatch	-11.9496
ograms	-11.9497
▁erase	-11.9498
▁prejudice	-11.9499
▁confronted	-11.9501
▁overtime	-11.9501
▁exp	-11.9504
▁choke	-11.9504
▁matches	-11.9505
▁deer	-11.9506
▁seeds	-11.9507
▁biased	-11.9507
▁fussy	-11.9508
▁sealed	-11.9508
▁folks	-11.9511
▁principles	-11.9511
▁discovery	-11.9512
▁englishman	-11.9513
▁frightening	-11.9515
▁fax	-11.9517
▁proposed	-11.9519
▁imitate	-11.9521
▁financially	-11.9522
▁hospitali	-11.9523
▁orient	-11.9524
▁stressed	-11.9526
▁blushed	-11.9526
▁frustrating	-11.9526
▁anti	-11.9532
▁recovering	-11.9535
▁korean	-11.9537
▁surfing	-11.9537
▁bo	-11.9538
▁temples	-11.9539
▁poorer	-11.9541
▁industrial	-11.9551
▁wages	-11.9554
rban	-11.9557
▁mugg	-11.9559
▁raci	-11.9569
▁sunburn	-11.9573
▁bragg	-11.9578
▁rats	-11.9578
▁regarded	-11.9585
▁blankets	-11.9588
▁salty	-11.9589
▁bleed	-11.9591
▁bullets	-11.9602
▁wisely	-11.9603
▁topics	-11.9616
▁wounds	-11.9616
▁operate	-11.9629
▁wires	-11.9637
▁forks	-11.9637
▁reservations	-11.9666
▁heating	-11.9667
▁pant	-11.9673
▁programs	-11.9673
▁fra	-11.9685
▁experts	-11.9687
▁odds	-11.9694
▁weighs	-11.9694
▁issues	-11.9708
▁holes	-11.9716
▁mow	-11.9731
work	-11.9739
▁respectful	-11.9745
arily	-11.9746
▁majors	-11.9765
▁melo	-11.9779
▁examples	-11.978
▁ray	-11.9782
▁tripped	-11.979
▁diseases	-11.9794
ament	-11.98
llows	-11.9802
▁warming	-11.9806
▁discussing	-11.9814
▁wr	-11.982
patter	-11.9869
▁affect	-11.9875
▁sits	-11.9881
dependent	-11.9888
decorated	-11.9893
▁offering	-11.9904
ox	-11.991
▁troubles	-11.9914
▁overdo	-11.993
▁blinds	-11.994
nto	-11.9955
iffe	-11.997
▁differently	-11.9985
▁dated	-12.0016
▁balls	-12.0018
most	-12.0023
cam	-12.0024
▁fac	-12.0033
of	-12.0045
rel	-12.0046
leaned	-12.0058
lower	-12.0094
▁cha	-12.0095
▁musical	-12.013
▁fre	-12.0151
▁usa	-12.0164
me	-12.0233
▁atm	-12.024
ung	-12.0252
▁guessing	-12.03
▁factor	-12.0309
warded	-12.0328
the	-12.0395
her	-12.0436
ber	-12.0502
▁cameras	-12.0515
ille	-12.0536
▁moves	-12.0649
elt	-12.0666
hold	-12.0688
pped	-12.0722
▁thoughtful	-12.0736
▁includ	-12.0771
signed	-12.079
gained	-12.0832
ground	-12.0844
build	-12.0856
willing	-12.0856
phone	-12.0856
fight	-12.0857
fish	-12.086
back	-12.0861
rang	-12.0861
▁benefit	-12.0862
▁hamburger	-12.0862
▁consequence	-12.0864
rail	-12.0873
▁imitat	-12.0874
ments	-12.0876
▁confess	-12.0884
▁distract	-12.0884
▁exhaust	-12.0885
▁mob	-12.0889
ative	-12.0892
▁refresh	-12.0894
stic	-12.0899
▁actual	-12.09
▁deceive	-12.0901
▁involve	-12.0901
▁relieve	-12.0902
▁sneak	-12.0904
▁logic	-12.0905
▁struggle	-12.0907
ological	-12.0912
works	-12.0913
▁tale	-12.0913
▁concei	-12.0914
▁drag	-12.0914
▁transport	-12.0914
▁appro	-12.0914
▁journal	-12.0914
hai	-12.0915
▁uninterest	-12.0915
ckon	-12.0915
migrate	-12.0915
▁absurd	-12.0915
▁ancestor	-12.0915
▁angrily	-12.0915
▁archaeolog	-12.0915
▁artificial	-12.0915
▁associate	-12.0915
▁august	-12.0915
▁autopsy	-12.0915
▁bachelor	-12.0915
▁backpack	-12.0915
▁blouse	-12.0915
▁bounce	-12.0915
▁bracelet	-12.0915
▁brochure	-12.0915
▁cafeteria	-12.0915
▁claustrophobi	-12.0915
▁clumsy	-12.0915
▁cocaine	-12.0915
▁conceal	-12.0915
▁conspiracy	-12.0915
▁cricket	-12.0915
▁curfew	-12.0915
▁deciding	-12.0915
▁discrimination	-12.0915
▁disgrace	-12.0915
▁disneyland	-12.0915
▁editor	-12.0915
▁electronic	-12.0915
▁equipment	-12.0915
▁expand	-12.0915
▁fiction	-12.0915
▁fierce	-12.0915
▁geography	-12.0915
▁grammatical	-12.0915
▁greece	-12.0915
▁groggy	-12.0915
▁handicapped	-12.0915
▁harsh	-12.0915
▁helicopter	-12.0915
▁hilton	-12.0915
▁immigrants	-12.0915
▁leisure	-12.0915
▁masterpiece	-12.0915
▁nagoya	-12.0915
▁nara	-12.0915
▁nasty	-12.0915
▁necessity	-12.0915
▁nonstop	-12.0915
▁orchestra	-12.0915
▁parallel	-12.0915
▁rainbow	-12.0915
▁scholar	-12.0915
▁shampoo	-12.0915
▁somehow	-12.0915
▁sufficient	-12.0915
▁summit	-12.0915
▁survival	-12.0915
▁sweetheart	-12.0915
▁swollen	-12.0915
▁sympathi	-12.0915
▁technique	-12.0915
▁thirtie	-12.0915
▁timing	-12.0915
▁trombone	-12.0915
▁unemployment	-12.0915
▁upload	-12.0915
▁voting	-12.0915
▁whiskey	-12.0915
▁whispering	-12.0915
▁braces	-12.0915
▁browser	-12.0915
▁chips	-12.0915
▁courtesy	-12.0915
▁deliberately	-12.0915
▁forbidden	-12.0915
▁headlights	-12.0915
▁hives	-12.0915
▁lipstick	-12.0915
▁withdraw	-12.0915
▁export	-12.0915
▁hardworking	-12.0915
▁inclined	-12.0915
▁shuffle	-12.0915
▁corrupt	-12.0915
▁commission	-12.0915
strate	-12.0915
▁greasy	-12.0915
▁libert	-12.0915
▁aliens	-12.0915
▁bankrupt	-12.0915
▁prophecy	-12.0915
▁indeed	-12.0915
▁trim	-12.0915
▁cattle	-12.0915
▁senior	-12.0915
▁automobile	-12.0915
▁ipad	-12.0915
▁snore	-12.0915
▁bankruptcy	-12.0915
▁comparison	-12.0915
▁jesu	-12.0915
▁dictator	-12.0915
▁senator	-12.0915
▁acid	-12.0915
▁possession	-12.0915
▁spade	-12.0915
▁pear	-12.0915
▁pursu	-12.0915
▁motor	-12.0915
▁strain	-12.0916
▁hydro	-12.0916
▁uneasy	-12.0916
▁slippers	-12.0916
▁thinner	-12.0916
▁refugees	-12.0916
▁acquaintance	-12.0916
▁astrology	-12.0916
▁rack	-12.0916
▁trial	-12.0916
▁hangover	-12.0916
▁ultimate	-12.0916
▁affection	-12.0916
▁occupied	-12.0916
▁slippery	-12.0916
▁tries	-12.0916
▁tiptoe	-12.0917
▁beatles	-12.0917
▁paperwork	-12.0917
▁quantity	-12.0917
▁bride	-12.0917
▁prof	-12.0918
▁cage	-12.0918
▁cabin	-12.0918
▁rudeness	-12.0919
▁forgiveness	-12.0919
▁highway	-12.0919
▁grum	-12.092
▁rash	-12.092
▁wave	-12.092
▁racist	-12.0921
▁permitting	-12.0921
▁development	-12.0922
▁abolished	-12.0922
▁dismissed	-12.0922
▁easter	-12.0923
▁tempting	-12.0923
bit	-12.0923
otic	-12.0925
ctic	-12.0925
▁expired	-12.0927
▁endure	-12.0927
▁emphasi	-12.093
▁wolves	-12.093
▁witch	-12.093
▁speciali	-12.093
▁undergo	-12.0933
▁luna	-12.0933
▁instantly	-12.0933
▁acknowledged	-12.0934
nee	-12.0935
▁terrorists	-12.0935
▁peacefully	-12.0935
▁refreshing	-12.0936
▁severely	-12.0938
▁undressing	-12.0939
▁recycle	-12.094
▁footprints	-12.0943
▁anticipated	-12.0944
▁composer	-12.0944
▁guaranteed	-12.0945
▁recovery	-12.0945
▁dai	-12.0947
▁compani	-12.0947
▁entertaining	-12.0948
▁sued	-12.0949
jack	-12.095
▁flames	-12.0952
▁tricky	-12.0952
▁dime	-12.0953
▁contributed	-12.0955
▁makeup	-12.0957
▁environmental	-12.096
▁blessed	-12.0962
▁fatal	-12.0965
▁shaved	-12.0966
▁bump	-12.0969
paw	-12.0971
▁bitterly	-12.0974
▁earrings	-12.0976
▁instruments	-12.0976
▁torn	-12.0977
ately	-12.0981
▁clients	-12.0984
▁ideal	-12.0987
▁directly	-12.0988
ethical	-12.0999
▁sweating	-12.1
▁snacks	-12.1
▁medi	-12.1003
▁prayed	-12.1005
▁funds	-12.1008
lope	-12.1009
▁frogs	-12.1009
▁movement	-12.1009
▁roller	-12.1011
▁thr	-12.1012
▁flea	-12.1014
espera	-12.1017
▁eighty	-12.1027
▁signal	-12.1045
▁secure	-12.1058
▁leaks	-12.1066
▁events	-12.1077
pox	-12.1085
▁soil	-12.1085
ties	-12.1094
▁burns	-12.11
▁adore	-12.1106
▁appearances	-12.1107
▁resigned	-12.1111
▁bounds	-12.1116
▁dislikes	-12.1116
▁calmly	-12.1117
▁equals	-12.114
rely	-12.1148
▁suggestions	-12.1149
▁films	-12.1165
▁warmly	-12.1166
▁concerns	-12.1175
▁dar	-12.1176
▁shaving	-12.1178
▁toast	-12.1179
▁wak	-12.1216
lu	-12.122
▁donut	-12.1236
▁item	-12.1239
lance	-12.1258
plus	-12.1276
▁gardener	-12.1276
▁pies	-12.1279
bar	-12.1294
▁slo	-12.1324
aving	-12.1326
▁fails	-12.1333
▁chickens	-12.1342
antic	-12.1347
▁grandm	-12.1353
▁distances	-12.1367
▁interests	-12.1369
▁char	-12.138
▁gardening	-12.1382
▁articles	-12.1418
▁belonged	-12.1451
▁appointments	-12.1469
▁subjects	-12.1469
ium	-12.1484
rden	-12.1508
▁scr	-12.1509
▁tube	-12.1513
▁explanations	-12.1538
▁fruits	-12.1581
▁flo	-12.1584
▁annual	-12.1587
iness	-12.1594
ories	-12.1604
▁smiles	-12.1626
▁relie	-12.1628
tted	-12.1662
▁dam	-12.1675
don	-12.1714
▁par	-12.1747
▁update	-12.189
ility	-12.1907
eller	-12.1939
ite	-12.1951
nounced	-12.1952
gur	-12.1989
▁definite	-12.2006
ool	-12.2007
gue	-12.2012
▁needle	-12.2017
rk	-12.2078
▁grand	-12.2088
my	-12.2154
rry	-12.2172
▁decorate	-12.2183
mber	-12.2202
▁chatt	-12.2302
predictable	-12.2318
our	-12.232
shed	-12.2374
ouch	-12.2377
erg	-12.2378
bay	-12.2398
▁cultur	-12.2443
▁remark	-12.2464
ince	-12.249
neath	-12.2508
▁eve	-12.2515
house	-12.2517
solved	-12.2519
water	-12.252
qualified	-12.2521
acceptable	-12.2521
loyal	-12.2521
sensitive	-12.2522
ball	-12.2522
forest	-12.2522
friendly	-12.2522
brush	-12.2523
fall	-12.2523
impressed	-12.2523
chair	-12.2523
due	-12.2523
pay	-12.2523
▁candidate	-12.2527
▁ufo	-12.2527
▁flaw	-12.2527
▁christian	-12.2528
▁olympic	-12.253
▁string	-12.253
beat	-12.253
▁negotiation	-12.2531
▁pickpocket	-12.2531
▁hostage	-12.2531
▁shout	-12.2531
▁survivor	-12.2531
▁crop	-12.2532
mpulsive	-12.254
▁solv	-12.254
▁compos	-12.2547
▁sigh	-12.2547
axed	-12.2547
▁skip	-12.2548
▁extinguish	-12.255
▁manner	-12.255
▁scold	-12.2552
▁plug	-12.2554
▁flirt	-12.2561
▁defi	-12.2562
▁collapse	-12.2567
▁congratulate	-12.2567
▁connect	-12.2568
▁discourage	-12.2571
▁dirt	-12.2571
▁base	-12.2572
▁expire	-12.2573
ifted	-12.2574
▁profession	-12.2575
▁nin	-12.2576
▁easie	-12.2579
▁construct	-12.258
▁negotia	-12.258
▁recess	-12.258
▁assert	-12.2581
▁babysit	-12.2581
▁prude	-12.2581
obby	-12.2581
craft	-12.2581
▁daydream	-12.2582
▁draft	-12.2582
▁yawn	-12.2582
iterate	-12.2582
▁abhor	-12.2582
▁antidote	-12.2582
▁antiques	-12.2582
▁auditorium	-12.2582
▁bacteria	-12.2582
▁banjo	-12.2582
▁behalf	-12.2582
▁beijing	-12.2582
▁berlin	-12.2582
▁bygones	-12.2582
▁cafe	-12.2582
▁cereal	-12.2582
▁colleague	-12.2582
▁combination	-12.2582
▁commotion	-12.2582
▁confusing	-12.2582
▁consumption	-12.2582
▁controversial	-12.2582
▁cremated	-12.2582
▁crude	-12.2582
▁custody	-12.2582
▁cycling	-12.2582
▁cynical	-12.2582
▁disapprov	-12.2582
▁endanger	-12.2582
▁endeavor	-12.2582
▁expelled	-12.2582
▁explorer	-12.2582
▁fracture	-12.2582
▁gesture	-12.2582
▁glimpse	-12.2582
▁governor	-12.2582
▁grandson	-12.2582
▁groan	-12.2582
▁gross	-12.2582
▁hairdresser	-12.2582
▁hibernate	-12.2582
▁hockey	-12.2582
▁hypothesis	-12.2582
▁iceberg	-12.2582
▁implying	-12.2582
▁infection	-12.2582
▁intriguing	-12.2582
▁irritate	-12.2582
▁leaf	-12.2582
▁liquid	-12.2582
▁loophole	-12.2582
▁lyric	-12.2582
▁meditating	-12.2582
▁micro	-12.2582
▁microscope	-12.2582
▁muslim	-12.2582
▁naughty	-12.2582
▁navy	-12.2582
▁neighbour	-12.2582
▁niece	-12.2582
▁oath	-12.2582
▁overcooked	-12.2582
▁paragraph	-12.2582
▁parrot	-12.2582
▁patrol	-12.2582
▁paycheck	-12.2582
▁peculiar	-12.2582
▁penalty	-12.2582
▁photogenic	-12.2582
▁picasso	-12.2582
▁premonition	-12.2582
▁principal	-12.2582
▁regulation	-12.2582
▁remarried	-12.2582
▁repaint	-12.2582
▁retiring	-12.2582
▁scotland	-12.2582
▁screwdriver	-12.2582
▁shore	-12.2582
▁shortcut	-12.2582
▁sidewalk	-12.2582
▁singapore	-12.2582
▁sorrow	-12.2582
▁souvenir	-12.2582
▁splash	-12.2582
▁spray	-12.2582
▁steep	-12.2582
▁suppress	-12.2582
▁thailand	-12.2582
▁thread	-12.2582
▁tickl	-12.2582
▁tractor	-12.2582
▁translating	-12.2582
▁twentie	-12.2582
▁unforgettable	-12.2582
▁unimportant	-12.2582
▁vanilla	-12.2582
▁virtue	-12.2582
▁vocabulary	-12.2582
▁workaholic	-12.2582
▁yacht	-12.2582
▁begging	-12.2582
▁butterfly	-12.2582
▁duties	-12.2582
▁housing	-12.2582
▁presum	-12.2582
▁programmer	-12.2582
▁relations	-12.2582
▁tribe	-12.2582
edient	-12.2582
▁pump	-12.2582
▁trash	-12.2582
▁accusation	-12.2582
▁butcher	-12.2582
▁residential	-12.2582
conclusi	-12.2582
▁stake	-12.2582
▁staple	-12.2582
nior	-12.2582
▁concept	-12.2582
▁drama	-12.2582
▁psychologist	-12.2582
▁republican	-12.2582
▁automatically	-12.2582
▁balloon	-12.2582
▁determination	-12.2582
▁calorie	-12.2582
▁crunch	-12.2582
▁restored	-12.2582
▁pollute	-12.2582
▁slim	-12.2582
▁hardships	-12.2582
▁disconnect	-12.2582
▁grouch	-12.2582
▁decorating	-12.2582
▁executive	-12.2582
▁routine	-12.2582
▁inflation	-12.2582
▁championship	-12.2582
▁disrespectful	-12.2582
▁vanished	-12.2582
▁stung	-12.2582
▁sprain	-12.2582
ipper	-12.2582
▁chairperson	-12.2582
▁exhibition	-12.2582
▁romance	-12.2582
▁employment	-12.2582
▁advertisement	-12.2582
▁combat	-12.2582
▁brightened	-12.2582
arian	-12.2582
▁gullible	-12.2582
▁creation	-12.2582
therapy	-12.2582
▁bait	-12.2582
ators	-12.2582
▁retirement	-12.2583
motive	-12.2583
▁crank	-12.2583
▁occasionally	-12.2583
▁peaches	-12.2583
▁waist	-12.2583
umbling	-12.2583
▁marg	-12.2583
▁disappointment	-12.2583
▁diplomatic	-12.2583
▁divine	-12.2583
▁coke	-12.2583
▁resent	-12.2583
▁bandage	-12.2583
▁seine	-12.2583
▁shallow	-12.2584
▁seaside	-12.2584
ette	-12.2584
▁designer	-12.2584
▁baking	-12.2584
▁roast	-12.2585
▁plum	-12.2585
amental	-12.2585
▁fut	-12.2585
▁teasing	-12.2586
▁exile	-12.2586
▁coma	-12.2586
▁heels	-12.2587
▁naga	-12.2587
▁ironic	-12.2587
▁enthusiastic	-12.2588
▁satisfaction	-12.2588
usion	-12.2589
▁juggl	-12.259
▁bolted	-12.259
▁convicted	-12.259
▁dna	-12.2591
▁wag	-12.2591
▁enable	-12.2591
▁fireplace	-12.2593
▁bushes	-12.2594
▁thesis	-12.2594
umble	-12.2594
▁estimate	-12.2596
▁background	-12.2596
▁established	-12.2596
▁applicants	-12.2596
▁sexy	-12.2597
▁smith	-12.2599
▁wives	-12.2599
▁losses	-12.26
▁mandat	-12.2601
▁intimidated	-12.2603
▁fireman	-12.2604
▁inspiration	-12.2604
▁exploded	-12.2604
▁performed	-12.2608
▁flush	-12.2609
▁stingy	-12.2612
▁extinguished	-12.2614
▁steering	-12.2614
▁olives	-12.2616
▁simpler	-12.2617
▁sharpen	-12.2617
▁blushing	-12.2618
▁nu	-12.2619
eries	-12.262
▁wrapped	-12.2623
▁departed	-12.2625
▁generations	-12.2625
▁camels	-12.2625
spiring	-12.2626
▁rung	-12.2631
▁inhale	-12.2634
▁christians	-12.2635
▁benefits	-12.2645
▁hamburgers	-12.2645
▁poo	-12.2646
▁pronounced	-12.2646
▁carpe	-12.2648
▁foundation	-12.2654
▁napkins	-12.2655
▁mexic	-12.2662
▁falsely	-12.2663
ali	-12.2665
▁insulting	-12.2665
▁honored	-12.2672
▁bruises	-12.2674
▁opponents	-12.2674
▁comics	-12.2684
▁resigning	-12.2684
▁fled	-12.2691
▁lions	-12.2694
▁poisoning	-12.2695
▁crown	-12.2699
▁economics	-12.2701
ona	-12.271
boot	-12.2713
▁diamonds	-12.2723
▁belief	-12.2733
▁conditioning	-12.2736
▁straighten	-12.2739
▁hammered	-12.2742
▁retires	-12.2743
▁treaty	-12.2751
▁chin	-12.2767
▁pressing	-12.2769
▁shell	-12.2777
▁beginners	-12.2783
▁tips	-12.2784
▁tails	-12.2792
▁demanding	-12.2798
▁notebooks	-12.2802
▁enjoyable	-12.2811
▁conditioned	-12.2815
▁methods	-12.2822
▁miracles	-12.2832
rie	-12.2836
▁fans	-12.2841
▁trainer	-12.2849
▁op	-12.2858
▁wept	-12.286
▁posted	-12.2861
▁extract	-12.2863
▁opener	-12.2868
▁patt	-12.287
▁actors	-12.2875
▁challenges	-12.2886
▁rates	-12.2891
hus	-12.2894
▁drawers	-12.2897
▁priced	-12.2899
▁protecting	-12.29
▁lim	-12.2914
▁jacksons	-12.2922
▁judged	-12.2971
▁poorly	-12.2974
▁repairs	-12.2982
▁stocks	-12.2994
▁intrud	-12.3032
▁understandable	-12.3041
▁artists	-12.3058
partial	-12.3068
leading	-12.3108
▁pac	-12.311
mower	-12.3123
tanker	-12.3153
nsulted	-12.3156
▁ji	-12.3183
▁smoker	-12.321
asked	-12.3243
treat	-12.3251
nvinci	-12.3271
cla	-12.3279
dated	-12.3306
lum	-12.3341
con	-12.3448
iologist	-12.345
ax	-12.3504
used	-12.3507
▁gi	-12.3536
lied	-12.3561
ologist	-12.3614
▁copie	-12.3649
▁witnesse	-12.365
▁digni	-12.3723
mates	-12.3792
iff	-12.3824
▁peru	-12.4003
▁referr	-12.4005
anity	-12.402
hine	-12.4061
▁brea	-12.4065
wan	-12.4067
rum	-12.4095
▁swarm	-12.4164
jas	-12.4224
rna	-12.4228
▁design	-12.4235
rist	-12.4318
eria	-12.4321
▁medic	-12.4367
▁measur	-12.4392
cho	-12.4408
ache	-12.4445
where	-12.4464
xic	-12.4485
armed	-12.4496
▁korea	-12.4498
numbered	-12.4504
eem	-12.4515
medic	-12.4519
orient	-12.4519
cast	-12.4519
span	-12.452
write	-12.452
burn	-12.4521
damaged	-12.4521
oven	-12.4522
talented	-12.4522
confident	-12.4522
goat	-12.4523
organi	-12.4523
close	-12.4523
heat	-12.4523
shot	-12.4523
writer	-12.4524
▁fold	-12.4526
shop	-12.4526
dog	-12.4527
▁generation	-12.4528
▁flame	-12.4529
▁muscle	-12.453
▁classmate	-12.4531
▁chop	-12.4535
urb	-12.4536
▁creat	-12.4537
▁introduc	-12.454
ttery	-12.4543
titude	-12.4543
tacked	-12.4544
boy	-12.4549
▁perform	-12.4549
▁standard	-12.4551
▁dump	-12.4552
xious	-12.4563
pliers	-12.4564
▁suspende	-12.4567
▁dedicate	-12.4568
▁accuse	-12.4569
▁curl	-12.457
▁che	-12.4571
▁intimidate	-12.4571
▁empt	-12.4571
ada	-12.4572
▁chill	-12.4572
▁seal	-12.4572
▁interpret	-12.4578
constitution	-12.4578
▁avail	-12.4579
scape	-12.4581
▁supervis	-12.4581
▁intent	-12.4581
cript	-12.4581
▁gentle	-12.4581
scription	-12.4581
▁opportuni	-12.4581
efused	-12.4581
▁emerg	-12.4581
ology	-12.4581
berries	-12.4581
▁curve	-12.4581
▁multi	-12.4581
ssenger	-12.4581
▁empower	-12.4581
▁pharmaci	-12.4581
▁vigilan	-12.4581
▁advocat	-12.4582
▁circulat	-12.4582
▁dynami	-12.4582
ealand	-12.4582
uckled	-12.4582
▁abilities	-12.4582
▁admiring	-12.4582
▁altogether	-12.4582
▁amateur	-12.4582
▁amputated	-12.4582
▁ankara	-12.4582
▁aquarium	-12.4582
▁audiobooks	-12.4582
▁austria	-12.4582
▁avenue	-12.4582
▁balcony	-12.4582
▁belgium	-12.4582
▁believable	-12.4582
▁beneficial	-12.4582
▁bilingual	-12.4582
▁casualties	-12.4582
▁cholesterol	-12.4582
▁circus	-12.4582
▁conquer	-12.4582
▁conserve	-12.4582
▁convincing	-12.4582
▁creatures	-12.4582
▁debating	-12.4582
▁decode	-12.4582
▁decreasing	-12.4582
▁democrat	-12.4582
▁deodorant	-12.4582
▁diagonally	-12.4582
▁dictionaries	-12.4582
▁distributed	-12.4582
▁district	-12.4582
▁drummer	-12.4582
▁egypt	-12.4582
▁enthusiasm	-12.4582
▁escaping	-12.4582
▁explored	-12.4582
▁external	-12.4582
▁extinct	-12.4582
▁extraordinar	-12.4582
▁francisco	-12.4582
▁geneva	-12.4582
▁goggles	-12.4582
▁grandchildren	-12.4582
▁grudge	-12.4582
▁guidelines	-12.4582
▁hobbies	-12.4582
▁hollywood	-12.4582
▁housewife	-12.4582
▁imprison	-12.4582
▁inexpensive	-12.4582
▁inhabitants	-12.4582
▁intervene	-12.4582
▁invalid	-12.4582
▁ipod	-12.4582
▁kidney	-12.4582
▁kimono	-12.4582
▁koala	-12.4582
▁liquor	-12.4582
▁magnificent	-12.4582
▁mankind	-12.4582
▁manufacture	-12.4582
▁mattress	-12.4582
▁misspelled	-12.4582
▁mixture	-12.4582
▁moldy	-12.4582
▁mysterious	-12.4582
▁neglect	-12.4582
▁nickname	-12.4582
▁nutritious	-12.4582
▁obstacle	-12.4582
▁obstinate	-12.4582
▁okinawa	-12.4582
▁overwhelmed	-12.4582
▁oxford	-12.4582
▁perspective	-12.4582
▁phase	-12.4582
▁pigeons	-12.4582
▁platform	-12.4582
▁possibilities	-12.4582
▁premises	-12.4582
▁pyramid	-12.4582
▁ribbon	-12.4582
▁sculpture	-12.4582
▁shoelaces	-12.4582
▁shrugged	-12.4582
▁skyscraper	-12.4582
▁spectacular	-12.4582
▁spectator	-12.4582
▁statistics	-12.4582
▁stewardess	-12.4582
▁tequila	-12.4582
▁territory	-12.4582
▁translator	-12.4582
▁transplant	-12.4582
▁traumati	-12.4582
▁triangle	-12.4582
▁trophy	-12.4582
▁troubling	-12.4582
▁underwear	-12.4582
▁unrealistic	-12.4582
▁unthinkable	-12.4582
▁vehicle	-12.4582
▁welfare	-12.4582
▁windshield	-12.4582
▁yokohama	-12.4582
knob	-12.4582
layoffs	-12.4582
▁oboe	-12.4582
▁outlaw	-12.4582
▁trading	-12.4582
▁cuba	-12.4582
▁immortal	-12.4582
▁initial	-12.4582
▁schem	-12.4582
▁slopp	-12.4582
nuck	-12.4582
▁backstage	-12.4582
eval	-12.4582
▁frown	-12.4582
▁manipulate	-12.4582
▁tux	-12.4582
▁alps	-12.4582
▁galler	-12.4582
▁proposition	-12.4582
▁pessimistic	-12.4582
▁immature	-12.4582
▁psychology	-12.4582
▁victorious	-12.4582
▁ethn	-12.4582
▁intense	-12.4582
▁mysteries	-12.4582
▁reassur	-12.4582
▁auto	-12.4582
▁diabetic	-12.4582
▁leftovers	-12.4582
▁perseverance	-12.4582
▁reckless	-12.4582
▁abstain	-12.4582
▁corporation	-12.4582
▁allegations	-12.4582
▁hesitation	-12.4582
▁hunch	-12.4582
▁panda	-12.4582
▁trump	-12.4582
▁agency	-12.4582
▁prosperity	-12.4582
▁representative	-12.4582
▁bacon	-12.4582
▁measurements	-12.4582
▁poland	-12.4582
ecli	-12.4582
extr	-12.4582
▁southern	-12.4582
▁pony	-12.4582
▁profile	-12.4582
▁campfire	-12.4582
▁relevant	-12.4582
▁throne	-12.4582
▁prompt	-12.4582
▁grasp	-12.4582
▁uncertain	-12.4582
▁destinies	-12.4582
▁landscape	-12.4582
▁mailbox	-12.4582
▁assist	-12.4582
▁contribution	-12.4582
▁melts	-12.4582
▁finance	-12.4582
▁shelves	-12.4582
▁raft	-12.4582
▁rib	-12.4582
▁stitches	-12.4582
▁cro	-12.4582
▁visibl	-12.4582
▁supervisor	-12.4582
▁detest	-12.4582
▁sirens	-12.4582
▁alleg	-12.4583
opia	-12.4583
▁net	-12.4583
▁tag	-12.4583
▁fiance	-12.4583
▁recession	-12.4583
▁collar	-12.4583
▁encouragement	-12.4583
rected	-12.4583
▁cardboard	-12.4583
▁iceland	-12.4583
▁brass	-12.4583
▁indians	-12.4583
▁setback	-12.4583
▁termin	-12.4584
lege	-12.4584
▁lame	-12.4584
plen	-12.4584
▁interv	-12.4584
▁tech	-12.4584
arcel	-12.4584
▁belongings	-12.4584
▁humble	-12.4584
rait	-12.4584
▁pop	-12.4584
▁superb	-12.4584
▁crackers	-12.4585
▁rocket	-12.4585
▁combine	-12.4585
▁unpredictable	-12.4585
▁unsolved	-12.4585
▁management	-12.4586
▁scale	-12.4586
ulated	-12.4586
▁aching	-12.4586
▁expedit	-12.4586
▁disk	-12.4586
▁keyboard	-12.4587
exert	-12.4587
▁breed	-12.4587
lang	-12.4588
▁denie	-12.4588
▁dormitory	-12.4588
▁jaw	-12.4588
▁fingerprints	-12.4588
▁popularity	-12.4588
▁freshman	-12.4588
▁passage	-12.4589
▁swore	-12.4589
▁pub	-12.4589
▁descend	-12.459
▁agent	-12.4591
▁porter	-12.4591
▁polished	-12.4593
▁seventh	-12.4594
▁drunkard	-12.4596
struction	-12.4597
▁snoo	-12.4598
▁shivering	-12.4598
▁surrounding	-12.4598
▁tenure	-12.4599
▁lab	-12.46
▁estimated	-12.46
▁shrines	-12.46
▁pause	-12.46
▁pret	-12.4603
▁hardware	-12.4603
▁heroes	-12.4603
mple	-12.4604
▁educational	-12.4606
▁eraser	-12.4607
▁emb	-12.4607
▁sharpening	-12.4608
▁rust	-12.4608
▁balanced	-12.461
▁negotiated	-12.461
▁investigate	-12.4612
▁ingredients	-12.4612
▁symptoms	-12.4612
ibly	-12.4612
▁wax	-12.4613
mpire	-12.4616
▁pamper	-12.4616
▁pod	-12.4617
viet	-12.4617
brid	-12.4619
▁sighed	-12.4621
▁potter	-12.4622
▁irres	-12.4624
▁athletes	-12.4624
petition	-12.4624
▁crosses	-12.4624
▁rap	-12.4625
▁goose	-12.4626
▁camel	-12.4626
▁thoroughly	-12.463
▁pil	-12.4631
▁hood	-12.4632
▁competed	-12.4635
▁cheerfully	-12.4636
▁invested	-12.4636
▁employer	-12.4636
▁disappearing	-12.4637
▁ambi	-12.4637
▁dwell	-12.4638
▁chewing	-12.4641
▁flinched	-12.4643
▁regularly	-12.4644
▁shells	-12.4648
▁candidates	-12.4648
▁ufos	-12.4648
▁strings	-12.4648
▁rental	-12.4648
▁flaws	-12.4649
▁employed	-12.465
▁neatly	-12.4651
cited	-12.4651
▁passes	-12.4656
discretion	-12.4668
▁doubled	-12.4671
▁praying	-12.4671
▁beneath	-12.4672
▁adventures	-12.4673
▁sav	-12.4678
▁ign	-12.4678
▁chor	-12.4678
▁opposit	-12.4681
▁sailors	-12.4685
ulous	-12.4686
mature	-12.4691
▁fastened	-12.4693
▁spared	-12.4694
lain	-12.4696
▁unfold	-12.47
gnant	-12.4704
▁coughed	-12.4723
▁consulted	-12.4723
▁pred	-12.4727
did	-12.4734
▁tender	-12.4735
ela	-12.4735
hara	-12.4736
▁blondes	-12.4748
▁greeting	-12.4748
▁spreading	-12.4748
▁lag	-12.475
▁tents	-12.4753
▁owners	-12.4759
ango	-12.4773
▁voter	-12.4796
imaginable	-12.4821
oyal	-12.4826
▁tremble	-12.484
▁identifi	-12.4858
▁coaster	-12.4861
ose	-12.4868
rubbe	-12.4893
▁documentar	-12.4909
▁transmit	-12.495
ably	-12.496
ership	-12.5042
ork	-12.5103
▁brun	-12.5146
▁joint	-12.5248
cens	-12.5264
lf	-12.5305
▁pos	-12.5333
▁canoe	-12.5384
ept	-12.5387
pot	-12.539
cent	-12.5419
addle	-12.5431
itis	-12.5432
calculation	-12.5515
▁settl	-12.5616
owing	-12.5685
▁calcul	-12.5716
▁specialt	-12.5727
▁demonstrate	-12.5788
▁whip	-12.5895
hal	-12.5965
erable	-12.5997
mma	-12.6015
▁pa	-12.6136
unch	-12.6282
tale	-12.633
▁intrude	-12.6414
▁qui	-12.6601
ute	-12.6615
rolled	-12.6796
like	-12.6799
hill	-12.6799
flex	-12.6823
founded	-12.6831
ough	-12.6869
shu	-12.6894
▁devo	-12.69
pun	-12.69
word	-12.6906
alk	-12.691
▁sunb	-12.6918
maker	-12.6919
valent	-12.6928
tune	-12.6957
auce	-12.6967
ficial	-12.6979
quir	-12.6981
▁reform	-12.7003
▁achiev	-12.7008
hood	-12.7013
wrapped	-12.7018
wise	-12.7019
suit	-12.702
reason	-12.702
parent	-12.702
phrase	-12.702
located	-12.7021
rifle	-12.7021
temporary	-12.7021
▁reduc	-12.7021
shake	-12.7022
text	-12.7022
screw	-12.7022
▁continu	-12.7022
intend	-12.7023
avoid	-12.7023
about	-12.7023
watch	-12.7023
born	-12.7023
girl	-12.7023
stick	-12.7023
attered	-12.7025
starting	-12.7027
▁athlete	-12.7027
▁compet	-12.7027
stepp	-12.7028
meter	-12.7029
made	-12.7029
tail	-12.7029
weigh	-12.7029
▁footprint	-12.7029
▁clap	-12.7029
▁folk	-12.7029
▁principle	-12.7029
▁surround	-12.703
arita	-12.703
▁irre	-12.703
▁backward	-12.7031
▁stink	-12.7031
▁disgust	-12.7031
▁olive	-12.7032
aware	-12.7033
▁kilo	-12.7033
▁threaten	-12.7037
▁fir	-12.7041
▁bake	-12.7043
▁confront	-12.705
▁elect	-12.7051
▁supplie	-12.7054
▁tabl	-12.7055
ounding	-12.7056
▁era	-12.7058
▁woo	-12.706
▁shiver	-12.706
athing	-12.7065
▁reschedule	-12.7066
▁blond	-12.7067
▁rapid	-12.7067
▁unbelievabl	-12.7069
▁destin	-12.707
▁oppose	-12.707
▁torture	-12.7072
▁ev	-12.7072
q	-12.7073
▁mini	-12.7073
▁ethi	-12.7074
terin	-12.7074
▁badge	-12.7076
▁hum	-12.7077
inted	-12.7079
▁eag	-12.7079
▁diploma	-12.7079
olling	-12.7079
dict	-12.7081
▁strawberr	-12.7081
▁excess	-12.7081
▁detect	-12.7081
ference	-12.7081
tude	-12.7081
inste	-12.7081
▁prepos	-12.7081
▁deliberat	-12.7081
▁deteriorat	-12.7081
▁obstruct	-12.7081
▁unforg	-12.7081
▁exceed	-12.7082
▁tyrann	-12.7082
▁uglie	-12.7082
itious	-12.7082
ophreni	-12.7082
ussels	-12.7082
▁abducted	-12.7082
▁academic	-12.7082
▁advisor	-12.7082
▁ambiguit	-12.7082
▁ambush	-12.7082
▁arithmetic	-12.7082
▁association	-12.7082
▁astonishing	-12.7082
▁astronaut	-12.7082
▁autograph	-12.7082
▁banquet	-12.7082
▁bickering	-12.7082
▁biwa	-12.7082
▁blister	-12.7082
▁botan	-12.7082
▁buddhist	-12.7082
▁buffalo	-12.7082
▁cabbage	-12.7082
▁calculator	-12.7082
▁capacity	-12.7082
▁catastroph	-12.7082
▁clutch	-12.7082
▁commute	-12.7082
▁competitor	-12.7082
▁comprehension	-12.7082
▁consuming	-12.7082
▁coworkers	-12.7082
▁dedication	-12.7082
▁denmark	-12.7082
▁despair	-12.7082
▁detergent	-12.7082
▁dissolve	-12.7082
▁domestic	-12.7082
▁elaborate	-12.7082
▁enhance	-12.7082
▁exaggeration	-12.7082
▁excruciating	-12.7082
▁fanatic	-12.7082
▁faq	-12.7082
▁fertil	-12.7082
▁fetched	-12.7082
▁flabb	-12.7082
▁footsteps	-12.7082
▁frugal	-12.7082
▁giants	-12.7082
▁giraffe	-12.7082
▁googl	-12.7082
▁grandchild	-12.7082
▁handcuffed	-12.7082
▁happily	-12.7082
▁headquarters	-12.7082
▁hiccup	-12.7082
▁hippopotamus	-12.7082
▁humming	-12.7082
▁immune	-12.7082
▁improvise	-12.7082
▁impulse	-12.7082
▁inexcusable	-12.7082
▁invisible	-12.7082
▁invoice	-12.7082
▁jellyfish	-12.7082
▁jewels	-12.7082
▁karaoke	-12.7082
▁ketchup	-12.7082
▁kong	-12.7082
▁loneliness	-12.7082
▁malaria	-12.7082
▁managing	-12.7082
▁manipulative	-12.7082
▁marijuana	-12.7082
▁microsoft	-12.7082
▁migraine	-12.7082
▁misprint	-12.7082
▁motivation	-12.7082
▁mushroom	-12.7082
▁nagging	-12.7082
▁noodles	-12.7082
▁nuisance	-12.7082
▁obesity	-12.7082
▁overwhelming	-12.7082
▁palm	-12.7082
▁pedestrian	-12.7082
▁perfume	-12.7082
▁pioneer	-12.7082
▁plastered	-12.7082
▁pneumonia	-12.7082
▁preparation	-12.7082
▁prevail	-12.7082
▁procrastinating	-12.7082
▁promising	-12.7082
▁proofread	-12.7082
▁puddle	-12.7082
▁puff	-12.7082
▁pumpkin	-12.7082
▁qualification	-12.7082
▁questionnaire	-12.7082
▁raccoon	-12.7082
▁reptiles	-12.7082
▁revelation	-12.7082
▁revenue	-12.7082
▁seatbelt	-12.7082
▁sentiment	-12.7082
▁session	-12.7082
▁siblings	-12.7082
▁skeleton	-12.7082
▁steadily	-12.7082
▁strangled	-12.7082
▁structur	-12.7082
▁studio	-12.7082
▁substitute	-12.7082
▁surviving	-12.7082
▁sweden	-12.7082
▁swiss	-12.7082
▁syllable	-12.7082
▁terrifying	-12.7082
▁texas	-12.7082
▁thermostat	-12.7082
▁tobacco	-12.7082
▁toolbox	-12.7082
▁trespass	-12.7082
▁tsunami	-12.7082
▁twitter	-12.7082
▁uncommon	-12.7082
▁unfinished	-12.7082
▁unsuccessful	-12.7082
▁vacanc	-12.7082
▁vaccin	-12.7082
▁valley	-12.7082
▁waffles	-12.7082
▁wholeheartedly	-12.7082
▁wrinkle	-12.7082
▁yield	-12.7082
▁youtube	-12.7082
cott	-12.7082
▁audition	-12.7082
▁blurr	-12.7082
▁consent	-12.7082
▁disorder	-12.7082
▁elba	-12.7082
▁fame	-12.7082
▁pitied	-12.7082
▁shuttle	-12.7082
▁subtle	-12.7082
▁vessel	-12.7082
eviate	-12.7082
▁beverage	-12.7082
▁clown	-12.7082
▁element	-12.7082
▁interrogat	-12.7082
▁motel	-12.7082
▁mutter	-12.7082
▁obese	-12.7082
▁utter	-12.7082
▁venture	-12.7082
▁volunt	-12.7082
rogat	-12.7082
▁loop	-12.7082
▁firefighter	-12.7082
▁illustrat	-12.7082
▁kenne	-12.7082
▁nude	-12.7082
▁skimm	-12.7082
credited	-12.7082
rence	-12.7082
uating	-12.7082
▁undone	-12.7082
▁generate	-12.7082
▁misery	-12.7082
▁verified	-12.7082
▁convert	-12.7082
▁cradle	-12.7082
▁cube	-12.7082
▁twinkl	-12.7082
▁abrupt	-12.7082
▁defective	-12.7082
▁diagram	-12.7082
▁multipl	-12.7082
▁merchan	-12.7082
▁prospect	-12.7082
▁smack	-12.7082
▁nests	-12.7082
▁incorr	-12.7082
▁comedian	-12.7082
dney	-12.7082
▁lackey	-12.7082
▁obsc	-12.7082
▁decrease	-12.7082
▁yoga	-12.7082
▁forbid	-12.7082
▁exhale	-12.7082
▁salute	-12.7082
▁materialistic	-12.7082
▁contrary	-12.7082
▁erupt	-12.7082
▁optimist	-12.7082
▁genetic	-12.7082
▁bulk	-12.7082
▁instructor	-12.7082
▁outrageous	-12.7082
▁poll	-12.7082
▁excessive	-12.7082
▁priorities	-12.7082
▁hitchhik	-12.7082
▁demo	-12.7082
▁conviction	-12.7082
▁groceries	-12.7082
▁percepti	-12.7082
▁pirate	-12.7082
sional	-12.7082
sociable	-12.7082
▁premature	-12.7082
▁budd	-12.7082
▁whining	-12.7082
▁dramatic	-12.7082
▁shrank	-12.7082
▁atoms	-12.7082
▁constructive	-12.7082
▁donkey	-12.7082
▁eliminat	-12.7082
▁grill	-12.7082
▁vicious	-12.7082
▁disqualified	-12.7082
perative	-12.7082
▁considerably	-12.7083
▁detained	-12.7083
▁pantry	-12.7083
▁wander	-12.7083
▁slack	-12.7083
▁cockroaches	-12.7083
▁reef	-12.7083
▁weaknesses	-12.7083
▁lining	-12.7084
▁resistance	-12.7084
ptical	-12.7084
▁imitation	-12.7084
▁confession	-12.7084
▁nationality	-12.7084
▁portugal	-12.7084
▁cork	-12.7084
▁deeds	-12.7084
ilian	-12.7084
▁confiscated	-12.7084
▁executed	-12.7084
▁fend	-12.7084
▁heartedly	-12.7084
▁roar	-12.7084
ppies	-12.7084
▁swimsuit	-12.7084
▁teammates	-12.7084
▁glow	-12.7084
mmo	-12.7084
educti	-12.7085
▁hail	-12.7085
▁vul	-12.7085
▁impli	-12.7085
▁cries	-12.7085
▁unfounded	-12.7085
▁moist	-12.7085
▁ferr	-12.7085
▁violinist	-12.7086
▁pati	-12.7086
▁negotiating	-12.7086
invent	-12.7086
▁network	-12.7086
▁bla	-12.7086
▁physicist	-12.7086
▁underwater	-12.7086
▁fluid	-12.7086
look	-12.7086
▁poetry	-12.7086
▁poisonous	-12.7086
nex	-12.7087
shma	-12.7087
▁survey	-12.7087
▁containers	-12.7087
▁shameful	-12.7087
▁beast	-12.7087
▁rabi	-12.7087
▁vibrate	-12.7087
▁villagers	-12.7088
▁media	-12.7089
▁sumo	-12.7089
scramble	-12.709
▁seventy	-12.709
ivable	-12.709
▁hydr	-12.709
▁racing	-12.7091
▁dear	-12.7091
▁kingdom	-12.7091
▁conform	-12.7092
▁regrettable	-12.7092
▁interruption	-12.7092
▁branches	-12.7092
▁foxes	-12.7092
▁classified	-12.7093
tangle	-12.7093
ration	-12.7093
▁spook	-12.7093
▁wool	-12.7094
▁pup	-12.7094
▁sinker	-12.7095
▁unde	-12.7096
▁withered	-12.7096
▁introverted	-12.7096
▁growled	-12.7096
▁curly	-12.7097
▁chilly	-12.7097
▁rescheduled	-12.7097
▁showroom	-12.7099
▁badger	-12.7101
▁darkness	-12.7101
▁mineral	-12.7102
anished	-12.7104
▁pension	-12.7105
imaginative	-12.7106
▁unclear	-12.7107
▁helen	-12.7109
▁folding	-12.711
▁bully	-12.7111
▁tortured	-12.7112
▁grain	-12.7113
▁healed	-12.7116
▁stupidity	-12.7116
▁quicker	-12.7117
▁brighter	-12.7119
▁obtain	-12.7119
▁brew	-12.712
▁presentation	-12.712
trolled	-12.712
▁daylight	-12.7121
▁random	-12.7124
▁gases	-12.7125
▁weaker	-12.7125
▁sync	-12.7126
▁produced	-12.7128
clarin	-12.7128
▁perfection	-12.7129
▁nosy	-12.7131
▁ancho	-12.7133
▁clapp	-12.7134
curr	-12.7138
▁hacker	-12.7147
▁pluck	-12.7147
▁protesting	-12.7148
reek	-12.7151
▁gene	-12.7163
▁fri	-12.7174
▁announcer	-12.7177
▁frame	-12.7188
▁clarif	-12.7195
▁riser	-12.7197
domina	-12.7203
udic	-12.7205
▁legend	-12.723
▁economical	-12.7244
▁submitt	-12.7268
▁argu	-12.7288
ima	-12.7295
▁sadde	-12.7296
▁desir	-12.7325
gera	-12.7354
▁mari	-12.7373
▁paradi	-12.742
▁attacker	-12.7428
▁landl	-12.7432
▁exceptional	-12.7433
rgency	-12.7477
hou	-12.7492
▁interfer	-12.7578
warming	-12.7581
met	-12.7647
▁hanger	-12.7665
▁warri	-12.7748
▁blade	-12.7759
prop	-12.7833
escent	-12.7854
▁bro	-12.7868
▁challeng	-12.7905
ferring	-12.8059
bel	-12.8141
▁cardi	-12.8146
ucks	-12.8177
▁compensate	-12.8232
dered	-12.8276
▁flip	-12.8344
col	-12.8427
gible	-12.8446
cia	-12.8556
vation	-12.8636
▁dash	-12.8723
▁hassl	-12.8802
▁embarrasse	-12.8817
▁formalit	-12.914
raged	-12.9172
communicated	-12.9197
person	-12.9376
advantages	-12.9492
opped	-12.9515
canned	-12.9527
▁plott	-12.9668
harmed	-12.9738
hearted	-12.9856
▁trembl	-12.997
▁resembl	-13.006
long	-13.0074
▁redecorate	-13.0123
▁bodi	-13.0182
tivated	-13.0184
bber	-13.0192
asted	-13.0195
▁ethic	-13.0211
▁industri	-13.0226
▁contribut	-13.0235
▁celebr	-13.0308
▁anticipat	-13.0315
▁smok	-13.0317
▁stab	-13.0318
▁reject	-13.0322
com	-13.0341
▁brow	-13.0346
▁figur	-13.0348
cycle	-13.0351
estimate	-13.0351
regarded	-13.0353
biased	-13.0353
stream	-13.0353
charged	-13.0354
mission	-13.0354
meri	-13.0354
accurate	-13.0355
emotional	-13.0355
pronounce	-13.0355
packed	-13.0355
satisfied	-13.0356
shelf	-13.0356
natural	-13.0356
blind	-13.0356
healthy	-13.0356
power	-13.0356
easily	-13.0356
bank	-13.0356
wrote	-13.0356
break	-13.0356
mother	-13.0356
decided	-13.0357
school	-13.0357
loud	-13.0357
opened	-13.0357
box	-13.0358
seeing	-13.0358
▁ingredient	-13.0361
▁symptom	-13.0361
▁comma	-13.0362
▁terrorist	-13.0363
▁tempt	-13.0363
▁insect	-13.0364
▁expense	-13.0365
▁stair	-13.0366
▁vegetable	-13.0366
▁consume	-13.0366
tell	-13.0368
▁pronounc	-13.0371
▁lip	-13.0371
some	-13.0375
▁rob	-13.038
▁establish	-13.0383
▁humiliat	-13.0385
▁launch	-13.0386
▁spill	-13.0387
▁swor	-13.0388
▁disco	-13.0389
ensions	-13.0389
allas	-13.0394
▁snicker	-13.0394
▁mechani	-13.0394
▁predic	-13.0397
rsion	-13.0398
▁outrage	-13.04
▁acquire	-13.0401
▁dormitor	-13.0404
▁thirst	-13.0405
▁regist	-13.0405
▁kit	-13.0409
▁physici	-13.041
▁cockroach	-13.0412
▁peach	-13.0413
▁refuge	-13.0413
▁independen	-13.0413
▁accu	-13.0413
▁excu	-13.0413
▁tomato	-13.0413
▁volcan	-13.0414
▁exhibit	-13.0414
▁possess	-13.0414
▁inspect	-13.0414
▁dictat	-13.0414
▁disrespect	-13.0414
▁grocer	-13.0414
burg	-13.0414
▁spat	-13.0414
▁hypocri	-13.0414
stract	-13.0414
▁germ	-13.0414
▁terror	-13.0414
▁commun	-13.0414
ecutive	-13.0415
ruise	-13.0415
▁prophe	-13.0415
ffled	-13.0415
▁metaphor	-13.0415
▁encrypt	-13.0415
▁reincarnat	-13.0415
▁compil	-13.0415
▁diagnos	-13.0415
▁prosecut	-13.0415
▁reinforce	-13.0415
▁reprint	-13.0415
▁thunder	-13.0415
▁unplugg	-13.0415
conventional	-13.0415
slaughter	-13.0415
thrift	-13.0415
yushu	-13.0415
▁accuracy	-13.0415
▁afghanistan	-13.0415
▁aggression	-13.0415
▁airtight	-13.0415
▁ambassador	-13.0415
▁anthropolog	-13.0415
▁anxiety	-13.0415
▁appalling	-13.0415
▁apprentice	-13.0415
▁aristocra	-13.0415
▁assassin	-13.0415
▁assemble	-13.0415
▁astonishment	-13.0415
▁audio	-13.0415
▁backgammon	-13.0415
▁barricade	-13.0415
▁binoculars	-13.0415
▁bridesmaid	-13.0415
▁broccoli	-13.0415
▁bubble	-13.0415
▁cartridge	-13.0415
▁casino	-13.0415
▁catalogue	-13.0415
▁categories	-13.0415
▁celsius	-13.0415
▁centimeters	-13.0415
▁charisma	-13.0415
▁chemo	-13.0415
▁clinic	-13.0415
▁colonies	-13.0415
▁confine	-13.0415
▁continent	-13.0415
▁correspond	-13.0415
▁cosmetic	-13.0415
▁counterfeit	-13.0415
▁creak	-13.0415
▁crocodile	-13.0415
▁crutches	-13.0415
▁cucumber	-13.0415
▁cyclist	-13.0415
▁decapitated	-13.0415
▁deceiving	-13.0415
▁deck	-13.0415
▁declaration	-13.0415
▁declaw	-13.0415
▁definition	-13.0415
▁depression	-13.0415
▁dialect	-13.0415
▁diameter	-13.0415
▁distinct	-13.0415
▁drugstore	-13.0415
▁earthworm	-13.0415
▁ecology	-13.0415
▁eloquen	-13.0415
▁enforce	-13.0415
▁epidemic	-13.0415
▁equation	-13.0415
▁equator	-13.0415
▁evolve	-13.0415
▁exclude	-13.0415
▁extension	-13.0415
▁fantasy	-13.0415
▁feature	-13.0415
▁fingertip	-13.0415
▁flimsy	-13.0415
▁fumes	-13.0415
▁gluten	-13.0415
▁gravity	-13.0415
▁grief	-13.0415
▁guidebook	-13.0415
▁haiti	-13.0415
▁hallucinat	-13.0415
▁hamlet	-13.0415
▁handcuffs	-13.0415
▁harbor	-13.0415
▁hiroshima	-13.0415
▁historian	-13.0415
▁hospitable	-13.0415
▁hubb	-13.0415
▁improbable	-13.0415
▁indonesia	-13.0415
▁infatuation	-13.0415
▁infectious	-13.0415
▁inferior	-13.0415
▁ingenious	-13.0415
▁institution	-13.0415
▁insufficient	-13.0415
▁irregular	-13.0415
▁kansai	-13.0415
▁librarian	-13.0415
▁libraries	-13.0415
▁lifestyle	-13.0415
▁lilies	-13.0415
▁linux	-13.0415
▁livid	-13.0415
▁lodge	-13.0415
▁luxuri	-13.0415
▁magni	-13.0415
▁manuscript	-13.0415
▁meditation	-13.0415
▁mercury	-13.0415
▁mischievous	-13.0415
▁monopoli	-13.0415
▁moscow	-13.0415
▁mosque	-13.0415
▁mumps	-13.0415
▁netherlands	-13.0415
▁neutral	-13.0415
▁nitrogen	-13.0415
▁occupation	-13.0415
▁overjoyed	-13.0415
▁parliament	-13.0415
▁phenomen	-13.0415
▁phony	-13.0415
▁policies	-13.0415
▁powder	-13.0415
▁proportion	-13.0415
▁puberty	-13.0415
▁rehabilitation	-13.0415
▁sabotage	-13.0415
▁satellite	-13.0415
▁scenario	-13.0415
▁screech	-13.0415
▁scribble	-13.0415
▁sketch	-13.0415
▁sophomore	-13.0415
▁stalled	-13.0415
▁stammer	-13.0415
▁stepfather	-13.0415
▁stimulati	-13.0415
▁straightforward	-13.0415
▁stunning	-13.0415
▁substance	-13.0415
▁subtitle	-13.0415
▁suffocat	-13.0415
▁swedish	-13.0415
▁symphoni	-13.0415
▁syrup	-13.0415
▁tablecloth	-13.0415
▁taxpayer	-13.0415
▁teaspoon	-13.0415
▁telegram	-13.0415
▁texan	-13.0415
▁toyota	-13.0415
▁tragic	-13.0415
▁triathlon	-13.0415
▁tribut	-13.0415
▁twirl	-13.0415
▁ukrain	-13.0415
▁uncontrollabl	-13.0415
▁unconvinc	-13.0415
▁unhappiness	-13.0415
▁unicycle	-13.0415
▁unload	-13.0415
▁unprepared	-13.0415
▁vacuum	-13.0415
▁vertical	-13.0415
▁vodka	-13.0415
▁vulgar	-13.0415
▁whisky	-13.0415
▁windmill	-13.0415
▁windsurfing	-13.0415
▁yolks	-13.0415
▁collaborat	-13.0415
▁dragonfl	-13.0415
▁encouraging	-13.0415
▁frequen	-13.0415
▁hysterical	-13.0415
▁legislati	-13.0415
▁magnet	-13.0415
▁marvel	-13.0415
▁renovat	-13.0415
▁swift	-13.0415
▁thunderstorm	-13.0415
▁tremendous	-13.0415
▁atlantic	-13.0415
▁blunt	-13.0415
▁bonus	-13.0415
▁delegat	-13.0415
▁dutch	-13.0415
▁explicit	-13.0415
▁formula	-13.0415
▁impersonat	-13.0415
▁loco	-13.0415
▁moderate	-13.0415
▁oneself	-13.0415
▁pimples	-13.0415
▁stubb	-13.0415
▁unanimous	-13.0415
▁appendix	-13.0415
▁barrier	-13.0415
▁drugged	-13.0415
▁jimm	-13.0415
▁miniskirts	-13.0415
▁sacred	-13.0415
▁skunk	-13.0415
▁slump	-13.0415
▁sociolog	-13.0415
▁squeak	-13.0415
regulate	-13.0415
▁armenia	-13.0415
▁denial	-13.0415
▁radiat	-13.0415
▁sonata	-13.0415
▁evict	-13.0415
▁harp	-13.0415
▁pancakes	-13.0415
▁scalp	-13.0415
▁wrestl	-13.0415
▁snoring	-13.0415
▁ireland	-13.0415
▁alligator	-13.0415
▁competitive	-13.0415
▁averted	-13.0415
▁broadcast	-13.0415
▁mittens	-13.0415
▁refreshments	-13.0415
▁scoot	-13.0415
▁jiff	-13.0415
▁catnip	-13.0415
▁psychological	-13.0415
▁distort	-13.0415
▁escalator	-13.0415
▁disbelie	-13.0415
▁gratitude	-13.0415
▁newcomer	-13.0415
▁reverse	-13.0415
▁porc	-13.0415
▁verb	-13.0415
▁currenc	-13.0415
▁prudent	-13.0415
▁info	-13.0415
▁parole	-13.0415
▁variable	-13.0415
▁inquired	-13.0415
▁drained	-13.0415
▁corp	-13.0415
▁hypocrite	-13.0415
▁soaked	-13.0415
burgers	-13.0415
▁flock	-13.0415
▁bamb	-13.0415
▁floss	-13.0416
▁dripping	-13.0416
▁massac	-13.0416
▁continuous	-13.0416
▁skateboard	-13.0416
▁imaginary	-13.0416
▁charter	-13.0416
▁viral	-13.0416
▁inspector	-13.0416
▁furnish	-13.0416
▁err	-13.0416
ellen	-13.0416
▁liking	-13.0416
