<unk>	0
<s>	0
</s>	0
▁je	-3.41942
▁a	-3.50609
▁de	-3.53275
▁pas	-3.8496
▁est	-3.87556
▁vous	-3.88821
▁que	-3.96668
▁il	-4.02334
▁la	-4.09265
▁ne	-4.12238
▁le	-4.1508
▁ce	-4.23658
▁tu	-4.25165
s	-4.25358
▁j	-4.42369
▁n	-4.45968
▁tom	-4.48388
▁l	-4.49134
▁un	-4.49628
▁ai	-4.59029
▁nous	-4.69605
▁en	-4.75402
▁d	-4.77346
▁une	-4.88636
▁les	-5.00818
▁pour	-5.08939
▁me	-5.11695
▁suis	-5.15263
▁c	-5.15963
▁elle	-5.17899
▁qu	-5.25244
▁faire	-5.32517
▁ca	-5.38772
e	-5.40606
▁	-5.43733
▁s	-5.54424
▁dans	-5.54795
▁m	-5.55003
▁y	-5.55346
▁plus	-5.57312
▁du	-5.60443
▁moi	-5.645
▁qui	-5.65197
▁t	-5.66589
▁au	-5.67443
▁tout	-5.67741
▁te	-5.69042
▁des	-5.69673
▁veux	-5.69753
▁se	-5.73365
▁etre	-5.75863
▁fait	-5.76226
▁etait	-5.78758
▁avec	-5.79365
▁mon	-5.79987
▁etes	-5.81054
▁sur	-5.8294
▁si	-5.8393
▁et	-5.9448
▁sont	-5.98596
▁avez	-5.99629
▁as	-5.9988
r	-6.00887
▁es	-6.0278
▁son	-6.04625
tte	-6.05811
▁pense	-6.06712
▁ou	-6.08156
▁tres	-6.10807
▁peux	-6.11958
▁votre	-6.12473
▁ils	-6.13607
▁ma	-6.13782
▁cela	-6.14202
▁temps	-6.152
▁ete	-6.16435
▁lui	-6.16953
▁pourquoi	-6.17635
▁dit	-6.18581
▁ici	-6.20813
▁sais	-6.24673
▁chose	-6.27754
z	-6.2912
▁jamais	-6.34207
▁toi	-6.35144
▁on	-6.37309
▁comment	-6.39305
▁par	-6.42248
▁bien	-6.42252
▁vraiment	-6.42366
▁aime	-6.44198
▁sa	-6.45859
▁ton	-6.46685
▁avons	-6.46689
▁quelque	-6.47564
▁dire	-6.48119
▁ont	-6.48795
▁tous	-6.53302
▁aller	-6.554
▁besoin	-6.56984
▁avoir	-6.57446
▁beaucoup	-6.57695
▁personne	-6.59869
▁peut	-6.60929
▁elles	-6.61634
t	-6.65856
▁sommes	-6.66564
▁rien	-6.71966
▁parler	-6.72162
▁etais	-6.7386
▁train	-6.75542
▁peu	-6.75649
▁maison	-6.77008
▁mary	-6.77497
▁va	-6.77868
▁comme	-6.78531
es	-6.78882
▁arrive	-6.79793
▁deux	-6.80377
▁meme	-6.81455
nt	-6.81562
▁toujours	-6.81595
▁quoi	-6.81595
▁trop	-6.81806
a	-6.82556
▁voir	-6.8287
▁argent	-6.85073
▁encore	-6.86089
▁quand	-6.86454
▁avait	-6.87439
ons	-6.8801
▁mes	-6.8927
▁monde	-6.90051
▁ta	-6.90573
▁mais	-6.90991
▁bon	-6.9275
▁soit	-6.9462
▁dois	-6.96236
▁voiture	-6.96337
▁faut	-6.97074
▁autre	-6.97472
▁aimerais	-6.99267
▁travail	-6.99303
▁vais	-6.99618
▁passe	-6.99828
ment	-7.0207
▁ses	-7.02526
▁fois	-7.02761
▁ceci	-7.0313
▁combien	-7.03413
▁quel	-7.03999
▁maintenant	-7.04987
▁vu	-7.06525
▁aussi	-7.06766
▁quelle	-7.06801
▁hui	-7.09577
▁aujourd	-7.09771
▁demande	-7.09914
▁air	-7.11303
▁eu	-7.11303
▁hier	-7.11548
▁plait	-7.11921
▁juste	-7.12383
▁avais	-7.12522
▁pouvez	-7.13348
▁aider	-7.13528
▁fais	-7.14661
chez	-7.15156
▁pere	-7.15705
▁francais	-7.17505
▁porte	-7.17829
ent	-7.18689
▁apres	-7.21383
▁livre	-7.21834
▁toutes	-7.24773
▁deja	-7.26108
▁pensais	-7.26545
▁notre	-7.26983
▁aide	-7.27654
▁bonne	-7.27754
▁quelqu	-7.28103
▁donne	-7.2841
▁trouve	-7.2857
▁prendre	-7.28878
▁assez	-7.28893
▁parle	-7.28896
▁voulez	-7.29204
▁demain	-7.30106
▁puis	-7.30163
▁marie	-7.30455
▁mieux	-7.30912
▁laisse	-7.32567
▁seul	-7.32615
i	-7.3358
▁sans	-7.33802
▁ecole	-7.34272
▁trois	-7.3474
▁probleme	-7.35167
▁avant	-7.35209
▁mal	-7.35485
▁devrais	-7.35839
▁heure	-7.36221
▁manger	-7.3797
▁vie	-7.38898
▁enfants	-7.41598
▁fut	-7.4171
▁savoir	-7.4252
▁gens	-7.43419
▁vo	-7.44275
▁dis	-7.44294
▁toute	-7.44952
▁aux	-7.45175
▁mere	-7.46005
▁homme	-7.4601
▁heures	-7.46092
▁soir	-7.46988
▁grand	-7.47416
▁nuit	-7.48875
▁cet	-7.49057
▁moment	-7.49146
▁chien	-7.50793
▁partir	-7.51367
▁jour	-7.51839
▁ces	-7.53371
▁simplement	-7.53653
▁tes	-7.54832
▁pris	-7.56115
▁aurai	-7.56406
▁ans	-7.56636
rais	-7.5692
▁idee	-7.57108
▁semble	-7.57135
▁sens	-7.57567
▁quelques	-7.58863
▁voulais	-7.59234
ait	-7.59591
▁derniere	-7.60919
▁veut	-7.6169
ez	-7.62579
▁venir	-7.62627
▁lorsqu	-7.62903
▁choses	-7.63173
▁pu	-7.63264
▁petit	-7.64389
▁heureux	-7.64402
▁boston	-7.64687
▁espere	-7.66464
it	-7.66773
que	-7.66815
▁nouveau	-7.67434
▁mange	-7.68734
▁tot	-7.68971
▁sait	-7.69207
▁jours	-7.69397
▁achete	-7.70716
▁rester	-7.71143
▁croire	-7.71651
▁faites	-7.72188
▁peur	-7.72457
▁non	-7.72709
riez	-7.72771
▁depuis	-7.73032
▁difficile	-7.73608
▁rendre	-7.74631
▁part	-7.74895
▁amis	-7.75062
ra	-7.75174
▁semaine	-7.75202
▁raison	-7.75459
▁fille	-7.76656
▁seule	-7.77453
▁chambre	-7.77481
▁entre	-7.77555
▁eau	-7.77786
▁soyez	-7.77846
▁ami	-7.78133
ont	-7.78708
▁entendu	-7.78774
▁prie	-7.78781
▁reste	-7.78781
▁sois	-7.79854
▁pendant	-7.80462
▁jusqu	-7.80637
▁nom	-7.81004
▁souvent	-7.81757
▁crois	-7.82264
▁pouvons	-7.82711
▁leur	-7.83319
▁femme	-7.84056
▁savais	-7.84853
▁parents	-7.8524
▁trouver	-7.86718
▁anglais	-7.87222
▁fete	-7.88639
▁question	-7.88651
▁matin	-7.88866
▁commence	-7.89469
c	-7.90187
▁longtemps	-7.90691
▁sera	-7.90758
▁acheter	-7.90904
▁cha	-7.92226
▁aucun	-7.92322
vons	-7.92448
▁oublie	-7.92963
▁dejeuner	-7.93314
▁lire	-7.94073
▁fort	-7.94113
▁perdu	-7.94482
▁tard	-7.94706
▁etaient	-7.94818
▁retard	-7.96177
▁telephone	-7.96349
▁montre	-7.96363
▁apprecie	-7.96371
▁desole	-7.96579
▁jouer	-7.96711
rent	-7.97277
▁moins	-7.97809
▁vrai	-7.98613
▁ville	-7.98681
▁pourrait	-7.98864
▁piece	-7.99131
▁aucune	-7.99639
▁sujet	-8.00503
▁travailler	-8.00775
▁lit	-8.00802
▁sortir	-8.01728
▁point	-8.01964
vez	-8.0215
▁connais	-8.02322
▁nouvelle	-8.02387
▁mort	-8.02535
▁ignore	-8.02587
▁presque	-8.02624
▁frere	-8.02625
▁viens	-8.02822
▁arrete	-8.02943
▁enfant	-8.03573
▁regarde	-8.03749
▁dites	-8.03845
▁travaille	-8.04281
▁alle	-8.05165
▁accord	-8.05339
▁grande	-8.05668
▁adore	-8.05773
▁voudrais	-8.05793
▁etiez	-8.05824
▁verite	-8.05917
▁occupe	-8.05951
▁main	-8.05975
▁doit	-8.06159
▁cafe	-8.0616
▁lettre	-8.07486
▁pensez	-8.08015
rait	-8.08178
n	-8.08336
l	-8.08773
cette	-8.08831
▁journee	-8.08861
▁autres	-8.09037
▁essaye	-8.09071
▁suppose	-8.09108
▁penses	-8.09112
▁davantage	-8.10114
▁famille	-8.10114
vriez	-8.10627
▁savez	-8.11046
▁allez	-8.11326
er	-8.12304
▁passer	-8.12422
▁jeune	-8.12588
▁attendre	-8.12945
▁fini	-8.13037
▁allons	-8.13709
▁entendre	-8.13715
▁veuillez	-8.14258
▁bureau	-8.14497
▁vas	-8.14781
▁age	-8.14886
▁histoire	-8.14984
▁merci	-8.15027
▁dix	-8.15556
ai	-8.15883
▁bus	-8.16218
▁essayer	-8.17342
▁petite	-8.17361
▁tellement	-8.18586
▁heureuse	-8.19108
▁voulait	-8.19356
▁deteste	-8.20135
▁chance	-8.20191
▁partie	-8.20372
▁re	-8.20524
▁ci	-8.20619
ant	-8.21385
re	-8.2159
▁laissez	-8.21838
▁venu	-8.21977
▁arreter	-8.22293
▁photo	-8.22792
▁livres	-8.23335
▁bas	-8.23473
ux	-8.23565
▁annee	-8.25144
▁tete	-8.25214
▁donner	-8.2531
▁coup	-8.25324
▁nager	-8.25336
▁accident	-8.26341
▁mis	-8.26341
▁pret	-8.26429
o	-8.26474
▁compte	-8.26672
▁pouvoir	-8.2682
▁marche	-8.2682
lui	-8.27018
▁pres	-8.27211
▁vivre	-8.27418
▁fatigue	-8.27915
u	-8.27984
▁mauvais	-8.28076
▁gare	-8.28086
rai	-8.28261
▁alors	-8.28321
p	-8.28583
▁envie	-8.28628
▁devri	-8.28683
▁joue	-8.28753
▁apprendre	-8.28933
▁reunion	-8.28936
▁comprends	-8.28955
▁malade	-8.2924
▁dur	-8.29347
▁voyage	-8.29366
▁prends	-8.29431
▁sous	-8.29909
▁devrait	-8.30478
▁vois	-8.3048
▁fils	-8.30698
▁vite	-8.30807
▁erreur	-8.30954
▁serait	-8.31056
▁ensemble	-8.31083
▁facile	-8.31304
▁comprendre	-8.31405
▁garcon	-8.31586
▁colere	-8.31706
▁midi	-8.31707
▁ecrit	-8.3215
▁ecrire	-8.32341
▁demander	-8.32419
f	-8.32447
▁seulement	-8.32509
▁yeux	-8.32703
▁nos	-8.32805
▁mot	-8.32958
▁meilleur	-8.33277
▁froid	-8.33287
▁vieux	-8.33352
▁importe	-8.33631
▁place	-8.33832
▁cote	-8.33838
▁ferais	-8.33848
▁serai	-8.34234
▁nourriture	-8.34242
▁premier	-8.3487
▁serais	-8.35135
▁chat	-8.3534
▁endroit	-8.35466
▁film	-8.35473
▁attention	-8.35534
▁conduire	-8.3554
▁amie	-8.35912
▁vue	-8.36057
▁reponse	-8.36126
▁maniere	-8.36792
▁rencontre	-8.37478
▁sure	-8.37542
▁autant	-8.37556
▁regarder	-8.37651
▁boire	-8.37837
▁mettre	-8.37842
▁questions	-8.38082
▁prefere	-8.38106
▁belle	-8.38139
▁chemin	-8.39515
▁personnes	-8.39584
▁puisse	-8.39837
▁feu	-8.40178
ee	-8.40294
▁laisser	-8.40731
▁rend	-8.40969
▁bientot	-8.41222
▁confiance	-8.41222
▁garde	-8.42138
▁contre	-8.42262
or	-8.42449
▁ferme	-8.42463
▁professeur	-8.42958
te	-8.43186
▁velo	-8.43309
▁dernier	-8.43346
▁celle	-8.43524
▁pays	-8.44713
▁possible	-8.44725
▁ainsi	-8.44725
▁exactement	-8.44732
▁visite	-8.45045
▁diner	-8.45543
▁parti	-8.45583
▁tant	-8.45767
▁decide	-8.45784
▁medecin	-8.45791
▁propos	-8.46338
le	-8.46413
▁dormir	-8.46696
▁minutes	-8.46982
▁vient	-8.47591
ais	-8.47675
ur	-8.47718
is	-8.48076
▁verre	-8.48101
▁police	-8.48357
▁pourrai	-8.48611
▁prix	-8.48725
▁cause	-8.48919
▁boulot	-8.49097
▁musique	-8.49097
▁loin	-8.4948
▁etudier	-8.49988
▁japon	-8.502
▁quiconque	-8.5022
▁vit	-8.50559
▁table	-8.50831
▁genre	-8.51357
▁affaire	-8.51511
▁dispose	-8.51762
▁vin	-8.52004
▁arriver	-8.52057
▁probablement	-8.52143
v	-8.52345
▁lieu	-8.52575
▁prochaine	-8.53083
▁lu	-8.53199
▁change	-8.53258
y	-8.53319
▁desolee	-8.53509
▁pouvais	-8.53669
▁recu	-8.53982
▁beau	-8.54023
▁cheveux	-8.5406
▁dessus	-8.54063
ne	-8.54075
▁plan	-8.54392
▁plutot	-8.54846
mes	-8.54961
▁fenetre	-8.55054
▁premiere	-8.55261
▁intention	-8.56445
▁payer	-8.56455
▁mois	-8.5671
▁emploi	-8.57368
▁gros	-8.58397
▁agit	-8.58527
b	-8.58644
▁appris	-8.5887
▁leurs	-8.59194
▁dehors	-8.59279
in	-8.59574
▁termine	-8.59583
▁etudie	-8.59642
▁chaud	-8.59761
▁penser	-8.60014
▁prete	-8.60069
▁chanter	-8.60266
▁important	-8.60397
▁rencontrer	-8.60408
▁auparavant	-8.60527
▁faim	-8.60527
▁habitude	-8.60536
▁peuvent	-8.60945
iez	-8.61774
▁choix	-8.62211
▁manque	-8.62461
▁gagne	-8.62698
▁etions	-8.63278
▁h	-8.63683
▁appeler	-8.64411
▁equipe	-8.65228
▁the	-8.65231
▁discuter	-8.65738
▁essaie	-8.65978
▁marcher	-8.6617
▁devoirs	-8.66531
▁prochain	-8.66776
▁cinq	-8.66994
▁pouvait	-8.66995
▁in	-8.67544
la	-8.67879
▁rappelle	-8.6832
▁immediatement	-8.6834
▁appelle	-8.68608
▁attends	-8.68609
▁utiliser	-8.68647
▁fumer	-8.6896
▁aimes	-8.69032
▁vont	-8.69178
▁classe	-8.69247
ce	-8.69397
▁surpris	-8.70074
quelle	-8.70167
▁cours	-8.70409
▁nouvelles	-8.70564
prenez	-8.70578
▁terre	-8.70624
▁repondre	-8.71101
m	-8.71435
▁vers	-8.71801
▁produit	-8.72047
▁securite	-8.72488
▁content	-8.72608
▁peine	-8.72961
▁perdre	-8.72969
ier	-8.73071
▁eux	-8.73152
▁savait	-8.73443
▁parce	-8.73462
▁tomber	-8.73482
▁chaussures	-8.73516
▁plu	-8.73584
▁boite	-8.73588
▁occupee	-8.73861
▁decision	-8.73909
▁biere	-8.73911
▁lundi	-8.74388
▁problemes	-8.74604
▁chercher	-8.74619
▁tombe	-8.74834
▁avion	-8.74945
▁sante	-8.75046
▁blesse	-8.75127
▁propre	-8.75432
▁cur	-8.75754
▁bebe	-8.75838
▁revoir	-8.75839
▁necessaire	-8.75919
▁secret	-8.76051
▁paye	-8.76115
▁bois	-8.76321
▁rentrer	-8.76593
▁nombreux	-8.7683
▁chanson	-8.76916
▁riche	-8.77391
ie	-8.77746
▁senti	-8.78096
ation	-8.78337
x	-8.79122
▁voulons	-8.79303
▁langue	-8.79442
▁vis	-8.79472
▁ferai	-8.79588
▁entrer	-8.79647
▁mains	-8.79703
▁instant	-8.79808
▁cuisine	-8.79938
▁bruit	-8.80316
▁appele	-8.80707
▁devenir	-8.80826
▁fit	-8.80888
▁hotel	-8.81339
▁television	-8.81339
▁route	-8.81339
▁trente	-8.81342
▁faisons	-8.81372
▁rapidement	-8.81384
▁leve	-8.81439
▁fin	-8.81677
▁journal	-8.81848
▁reve	-8.81941
▁facon	-8.8203
▁neige	-8.82088
▁prend	-8.82105
▁derriere	-8.82372
▁completement	-8.82381
▁arbre	-8.8256
▁numero	-8.82893
▁souviens	-8.82893
▁ayez	-8.82895
▁sac	-8.82911
me	-8.83047
▁australie	-8.83417
▁tennis	-8.83417
▁vouloir	-8.83417
▁commencer	-8.8346
▁ait	-8.83462
▁montrer	-8.83609
▁plein	-8.83615
▁ordinateur	-8.83617
▁derange	-8.83635
▁sorte	-8.83808
▁interessant	-8.8382
▁magasin	-8.84147
▁etudiants	-8.84306
▁voulu	-8.84472
g	-8.84513
▁cle	-8.84942
▁changer	-8.84965
▁vacances	-8.85004
ront	-8.85536
▁chapeau	-8.85539
▁fier	-8.85561
ions	-8.8567
▁poste	-8.85931
▁droit	-8.85991
▁situation	-8.86076
▁type	-8.86076
▁mauvaise	-8.86554
▁garder	-8.86646
▁coute	-8.86746
▁tort	-8.86806
▁rouge	-8.86867
▁aimez	-8.87078
▁etranger	-8.87084
▁restaurant	-8.8716
▁robe	-8.87162
▁telle	-8.87392
▁assis	-8.87392
▁rue	-8.8742
▁connait	-8.87656
▁fasse	-8.8798
▁poser	-8.87997
▁gagner	-8.88496
▁bu	-8.88551
aient	-8.88554
▁long	-8.88638
▁parc	-8.88655
▁guerre	-8.88809
d	-8.89345
▁anniversaire	-8.89364
▁affaires	-8.89697
▁fou	-8.89795
▁quatre	-8.89923
▁devant	-8.89924
▁font	-8.89955
▁soin	-8.90234
▁interesse	-8.90794
▁libre	-8.90803
▁dollars	-8.91164
▁fonctionne	-8.9121
▁ecoute	-8.91362
▁tour	-8.91603
▁hopital	-8.92189
▁voudriez	-8.92192
▁stupide	-8.92532
▁rentre	-8.92937
▁vole	-8.92986
▁rendu	-8.93169
▁cadeau	-8.93327
▁soleil	-8.93342
▁conseil	-8.93554
▁rire	-8.93585
▁pleurer	-8.93893
▁dimanche	-8.93923
▁pose	-8.94236
▁desormais	-8.94518
▁vieille	-8.94555
▁lumiere	-8.94896
▁plaisir	-8.95098
▁bras	-8.95105
an	-8.95199
▁tele	-8.95328
▁six	-8.9544
▁souhaite	-8.9551
▁amies	-8.95595
▁japonais	-8.95685
▁veulent	-8.95688
▁nombreuses	-8.95688
on	-8.95779
▁donc	-8.95794
▁pluie	-8.96324
▁faisait	-8.96598
▁etrange	-8.96613
▁apporte	-8.96794
▁chante	-8.96844
▁adresse	-8.96882
▁rapport	-8.96884
▁vetements	-8.96937
▁capable	-8.97312
▁retour	-8.97435
▁refuse	-8.97469
▁parfois	-8.97485
▁mesure	-8.97493
▁examen	-8.97925
▁pied	-8.9793
▁minute	-8.97931
▁lait	-8.98191
sse	-8.98263
▁ouvrir	-8.98418
▁jardin	-8.98701
▁conseille	-8.98848
▁annees	-8.99116
ir	-8.99163
▁carte	-8.99189
▁certain	-8.99233
▁parlez	-8.99715
▁lequel	-8.99795
▁casse	-8.99818
▁demanda	-8.99927
▁suffisamment	-8.99933
▁end	-8.99983
▁gateau	-9.00537
▁dictionnaire	-9.00552
▁noel	-9.00553
▁venez	-9.00599
▁plage	-9.01177
▁mourir	-9.01179
▁meilleure	-9.01272
▁tasse	-9.01341
▁manteau	-9.0181
▁mots	-9.02012
▁plusieurs	-9.03076
▁dormi	-9.03411
ou	-9.03416
▁filles	-9.03443
h	-9.03632
▁moindre	-9.03728
▁resoudre	-9.0373
▁habite	-9.04241
▁riviere	-9.04362
rons	-9.04568
▁quitte	-9.04679
▁liste	-9.04982
▁cherche	-9.04986
▁fur	-9.05227
us	-9.054
▁cher	-9.05468
▁excuses	-9.05623
▁finalement	-9.05671
▁reussi	-9.05981
▁vaut	-9.06396
▁ecouter	-9.07013
▁force	-9.07061
▁rendez	-9.07144
age	-9.07514
▁surprise	-9.07563
▁avocat	-9.07652
▁voici	-9.07652
▁to	-9.07903
▁compris	-9.07922
▁finir	-9.08035
▁amour	-9.08316
▁succes	-9.08323
al	-9.08443
▁reparer	-9.08479
▁attrape	-9.08522
▁fleurs	-9.08732
▁car	-9.09227
prit	-9.09448
▁travers	-9.09594
▁court	-9.09974
et	-9.10076
▁porter	-9.10228
aviez	-9.10354
▁bizarre	-9.10364
pe	-9.10737
▁envoye	-9.10812
part	-9.10905
▁seriez	-9.1097
▁feriez	-9.11085
▁hommes	-9.11236
▁imagine	-9.11507
▁danger	-9.11741
▁piano	-9.11748
▁appareil	-9.11749
▁projet	-9.11763
▁experience	-9.12448
▁occasion	-9.12503
▁suite	-9.12538
▁mets	-9.12575
▁ouvert	-9.12595
▁cache	-9.1261
▁devoir	-9.12791
▁chiens	-9.13
▁utilise	-9.13013
▁souci	-9.13066
▁g	-9.13082
▁quitter	-9.13206
▁face	-9.13265
▁grosse	-9.1329
▁excuse	-9.13415
▁expliquer	-9.1366
▁gentil	-9.1381
▁parvien	-9.13837
yo	-9.14474
▁poids	-9.14575
▁tire	-9.15204
mi	-9.15284
▁bibliotheque	-9.15295
▁opinion	-9.15295
▁poisson	-9.15361
▁mit	-9.15571
▁aies	-9.15735
▁mari	-9.15737
▁fus	-9.15968
▁donna	-9.16019
▁restez	-9.1602
▁dangereux	-9.16023
▁risque	-9.16093
▁f	-9.16213
▁parapluie	-9.16749
▁triste	-9.1675
▁amoureux	-9.16753
▁noir	-9.16797
▁prison	-9.16876
▁regles	-9.16975
▁doute	-9.16976
hors	-9.17085
▁allee	-9.17433
▁repas	-9.17477
▁entreprise	-9.17518
▁danser	-9.17535
▁erreurs	-9.1779
▁su	-9.17914
▁invite	-9.17953
▁haut	-9.17958
▁simple	-9.18136
▁bateau	-9.18209
able	-9.18342
lon	-9.18976
▁forme	-9.18978
▁allait	-9.19041
▁sommeil	-9.19067
▁menti	-9.19333
▁sorti	-9.19545
▁avions	-9.19582
▁arretez	-9.19598
ite	-9.1965
▁pleuvoir	-9.19723
▁oncle	-9.19724
▁taxi	-9.19724
▁autour	-9.19728
▁prepare	-9.19788
▁serez	-9.19903
ique	-9.20203
che	-9.20396
▁serieux	-9.20481
▁faute	-9.20623
▁esprit	-9.20753
▁venue	-9.2102
▁contente	-9.21164
▁rejouis	-9.21244
▁tenir	-9.21245
▁lunettes	-9.21246
▁devenu	-9.21247
ge	-9.21458
▁vol	-9.22078
▁courant	-9.22082
▁present	-9.22206
▁pommes	-9.22216
▁idiot	-9.22467
▁fera	-9.2278
▁proposition	-9.22789
▁radio	-9.22789
▁fatiguee	-9.23302
▁regardez	-9.23426
▁entends	-9.23505
▁message	-9.23572
▁attendais	-9.23589
▁durant	-9.23644
▁presenter	-9.23952
▁oblige	-9.24011
▁inconvenient	-9.24357
▁neuf	-9.24359
▁pire	-9.24369
▁couleur	-9.24371
▁e	-9.24562
di	-9.2465
▁continue	-9.24766
▁vingt	-9.25151
▁salle	-9.25252
▁taille	-9.25307
▁certains	-9.25336
▁avis	-9.25358
▁reveille	-9.25617
▁arme	-9.25718
▁retourne	-9.25904
▁asseoir	-9.25951
▁mariage	-9.25965
▁femmes	-9.25977
▁avance	-9.26621
▁accepte	-9.26713
▁difference	-9.26758
▁seconde	-9.27011
▁voyager	-9.27215
▁prudent	-9.27271
▁etudiant	-9.27281
▁enseignant	-9.2739
▁impression	-9.27499
▁attendu	-9.27524
▁batiment	-9.27579
▁lis	-9.27604
▁lever	-9.27632
▁connaitre	-9.27647
▁aise	-9.2774
▁irai	-9.2782
ci	-9.28036
▁avaient	-9.28088
▁sucre	-9.2839
▁signifie	-9.2839
▁rappeler	-9.28416
▁calme	-9.2849
▁fermer	-9.28491
▁coucher	-9.28501
▁presente	-9.28767
▁amuse	-9.28889
ras	-9.29178
▁tableau	-9.29212
▁banque	-9.29217
▁cheval	-9.29217
▁jeu	-9.29308
▁amusant	-9.29542
▁habitue	-9.29756
▁essayez	-9.29834
▁patron	-9.3003
▁prevoi	-9.30079
▁courir	-9.30111
▁dirait	-9.3015
▁papier	-9.30341
▁photos	-9.30709
▁traite	-9.30731
▁intelligent	-9.31115
▁concert	-9.31738
▁oui	-9.31835
▁empecher	-9.32031
▁eut	-9.32043
▁conseils	-9.32048
▁proche	-9.32067
ve	-9.32271
▁occuper	-9.32292
▁cense	-9.32434
as	-9.32556
▁attend	-9.32559
▁drole	-9.32593
▁tente	-9.33051
▁nombre	-9.33441
▁guitare	-9.33455
▁voix	-9.33455
▁ressemble	-9.33575
▁cesse	-9.34084
▁signe	-9.34111
▁coupe	-9.34268
▁rends	-9.34297
▁douleur	-9.34324
▁interieur	-9.34324
▁tempete	-9.34324
▁impossible	-9.34324
▁pieds	-9.34555
▁garcons	-9.34661
▁chemise	-9.34682
▁recherche	-9.34753
▁continuer	-9.34902
▁tuer	-9.35065
▁tel	-9.35141
▁sentir	-9.3515
▁vide	-9.35193
▁rhume	-9.35201
▁stylo	-9.35201
▁vecu	-9.35201
▁egalement	-9.35205
▁tourne	-9.35205
▁ni	-9.35364
▁chats	-9.35404
▁emprunter	-9.3577
▁alles	-9.3585
▁animaux	-9.36086
▁possede	-9.36086
▁suivre	-9.36091
▁supporter	-9.3649
▁lave	-9.36805
▁viendra	-9.36806
▁ciel	-9.36994
▁celebre	-9.37166
▁aille	-9.37307
▁moyen	-9.37342
▁sol	-9.37392
▁roman	-9.37395
▁lac	-9.37975
▁gout	-9.38304
▁environ	-9.38314
▁accepter	-9.38364
▁attraper	-9.3852
▁sent	-9.38714
▁cles	-9.38731
▁savons	-9.38731
▁seras	-9.38758
▁dedans	-9.38789
▁ignorais	-9.38792
▁honte	-9.38793
▁douche	-9.38798
▁parfait	-9.39081
▁groupe	-9.39707
▁machine	-9.39707
▁promis	-9.39707
▁viande	-9.39707
▁reflechir	-9.40222
ta	-9.40225
▁certaine	-9.40748
▁commande	-9.40807
▁soiree	-9.40823
▁chaise	-9.41128
▁eleve	-9.41298
▁abandonne	-9.41399
▁voyez	-9.41567
▁jeunes	-9.41845
tion	-9.41928
ue	-9.42039
▁bout	-9.42046
▁commenca	-9.42104
▁certaines	-9.42196
▁reussir	-9.42278
▁suggere	-9.42346
▁discours	-9.42511
▁facilement	-9.42784
▁compter	-9.4279
▁jolie	-9.42914
▁satisfait	-9.43439
▁different	-9.43461
▁entretenir	-9.43463
▁amerique	-9.43465
▁blanc	-9.43469
▁dure	-9.4351
▁autorise	-9.43546
▁rencontres	-9.43594
▁reconnaissant	-9.4369
▁mille	-9.43708
▁frappe	-9.4377
▁cent	-9.43815
ine	-9.44175
▁remarque	-9.44187
ut	-9.44295
▁tiens	-9.44296
▁honnete	-9.44309
▁docteur	-9.44424
▁pleut	-9.44424
▁moitie	-9.44425
▁an	-9.44467
▁retourner	-9.44552
▁monte	-9.44735
▁sentiment	-9.45162
▁sache	-9.45189
▁sept	-9.45391
▁president	-9.45395
▁universite	-9.45398
▁fallu	-9.45545
▁revenu	-9.45579
▁bonnes	-9.457
▁responsable	-9.45964
▁blague	-9.45968
▁mariee	-9.4601
▁propres	-9.46216
▁conscience	-9.46376
▁visage	-9.46401
▁pleure	-9.46427
▁bons	-9.46697
use	-9.46999
▁permis	-9.47363
▁bouteille	-9.47366
▁chacun	-9.47366
▁vouliez	-9.47366
▁aimait	-9.47367
▁sors	-9.47382
▁vivent	-9.47389
▁fiche	-9.47538
▁huit	-9.47758
▁vend	-9.47793
▁espoir	-9.4797
▁dents	-9.48057
▁passee	-9.48171
▁coin	-9.48321
▁phrase	-9.48366
▁utile	-9.48366
▁connaissez	-9.48491
▁dos	-9.48699
rie	-9.48788
fin	-9.48818
▁eleves	-9.48837
▁inquiete	-9.48906
▁mien	-9.48977
▁marier	-9.4899
▁gauche	-9.49127
▁service	-9.49384
▁trompe	-9.49477
▁bord	-9.49502
▁merite	-9.49559
▁jai	-9.49745
▁ri	-9.49895
▁enseigne	-9.50014
en	-9.50139
▁rapide	-9.50307
▁touche	-9.50319
▁vieil	-9.50349
▁incroyable	-9.50396
▁promets	-9.50396
▁bain	-9.50416
▁convaincu	-9.5052
▁allais	-9.5074
ca	-9.50749
▁longue	-9.51056
▁copine	-9.51427
▁hiver	-9.51455
▁partout	-9.51469
▁arret	-9.51724
▁choisi	-9.51762
da	-9.51797
▁semaines	-9.52122
▁pro	-9.52211
▁tombee	-9.52282
ma	-9.5243
▁sport	-9.52444
▁prevu	-9.52469
▁avenir	-9.52469
▁decider	-9.52516
▁etats	-9.52526
▁nettoyer	-9.52558
▁accuse	-9.52691
ement	-9.52896
▁note	-9.52957
▁regle	-9.53021
▁nage	-9.53184
▁debut	-9.53201
▁parole	-9.53241
▁remercier	-9.53258
il	-9.53365
▁dieu	-9.53372
▁embrasser	-9.53412
▁contact	-9.53448
▁mur	-9.53453
▁cravate	-9.53521
▁maladie	-9.53521
▁aeroport	-9.5353
▁rarement	-9.53548
▁idees	-9.53701
▁decu	-9.53793
▁ferait	-9.53892
ale	-9.53954
▁embrasse	-9.54047
▁glace	-9.54138
▁tranquille	-9.54252
▁information	-9.54271
▁couru	-9.54461
▁cas	-9.54482
▁crain	-9.54519
▁societe	-9.54585
▁ravi	-9.54762
▁ufs	-9.54832
▁bouton	-9.55106
▁but	-9.5531
▁enfin	-9.5551
▁offre	-9.55661
▁exterieur	-9.55661
▁obtenir	-9.55661
▁chouette	-9.55661
▁he	-9.55684
pa	-9.5592
▁epouse	-9.56073
▁unis	-9.56446
▁pomme	-9.56461
▁verifier	-9.56503
▁sourire	-9.56603
▁ennuis	-9.56748
▁pain	-9.56781
▁certainement	-9.56866
▁inquiet	-9.57308
▁choisir	-9.57519
▁retire	-9.57535
▁importante	-9.57597
▁gerer	-9.57684
▁aimeriez	-9.57772
▁habituellement	-9.57848
▁battre	-9.57875
▁vendre	-9.58009
▁parles	-9.58044
▁portes	-9.58388
aux	-9.58581
▁oubliez	-9.58815
▁public	-9.58936
if	-9.59006
▁attendez	-9.59024
▁preter	-9.59248
▁endormi	-9.59282
▁connu	-9.59398
▁or	-9.59587
▁surs	-9.59764
▁pauvre	-9.59797
▁cuisiner	-9.59797
▁loi	-9.59798
▁montagne	-9.59816
▁aiment	-9.59966
▁couteau	-9.60076
▁obtenu	-9.60081
▁repondu	-9.60099
eur	-9.60218
vi	-9.60291
at	-9.60501
▁soucie	-9.60521
▁morte	-9.60841
▁decouvert	-9.61217
▁faveur	-9.61217
▁promenade	-9.61218
▁revenir	-9.61219
▁pique	-9.61252
▁considere	-9.61287
▁preparer	-9.61399
▁echoue	-9.61705
▁pourrions	-9.61716
ante	-9.61752
▁essaya	-9.62
▁disent	-9.62008
▁mienne	-9.62147
▁pratique	-9.62351
▁debout	-9.62367
▁musee	-9.62373
▁fiere	-9.6239
▁conseilla	-9.62401
▁portait	-9.62414
▁mettez	-9.62416
▁pont	-9.62479
ter	-9.62921
▁quelconque	-9.63304
▁voila	-9.63544
▁frais	-9.63619
▁prefererai	-9.64174
▁vent	-9.64438
▁sauve	-9.64577
▁regarda	-9.64607
▁implique	-9.6463
▁super	-9.64701
▁reellement	-9.64706
▁tic	-9.64707
▁parlons	-9.64711
▁envers	-9.64713
▁arrivee	-9.6473
ance	-9.64739
▁serieusement	-9.64754
▁crime	-9.64779
▁seuls	-9.6548
▁explique	-9.65575
▁ira	-9.65641
▁promesse	-9.65709
semblait	-9.65814
▁canape	-9.65897
▁extreme	-9.65897
▁cinema	-9.65897
▁sauf	-9.65897
▁connaissance	-9.65897
iste	-9.66398
j	-9.66637
▁gouvernement	-9.66825
▁appel	-9.66988
▁courses	-9.67057
▁politique	-9.67101
▁lentement	-9.67105
▁mentir	-9.67119
▁actuellement	-9.67133
son	-9.67153
▁puissi	-9.67288
▁ouvre	-9.67289
▁prudente	-9.67577
▁co	-9.67661
▁entree	-9.68136
▁im	-9.68261
▁oiseau	-9.68306
▁produire	-9.68321
▁corps	-9.68322
ure	-9.68361
▁resta	-9.68395
▁laver	-9.68668
▁ouverte	-9.68912
▁conduit	-9.68931
▁dise	-9.69009
▁prets	-9.69074
▁con	-9.69102
▁excuser	-9.69174
▁sortie	-9.69187
▁forte	-9.69303
▁souvenir	-9.69399
▁dirai	-9.69411
▁article	-9.69556
▁instituteur	-9.69556
▁joindre	-9.69556
▁corde	-9.69556
▁pause	-9.69563
▁terminer	-9.69717
▁depend	-9.69918
▁assure	-9.69929
▁arrivera	-9.70037
▁moyens	-9.70216
▁sympa	-9.70805
▁appartement	-9.70806
▁humeur	-9.70806
▁fallait	-9.70816
▁perte	-9.70851
▁parfaitement	-9.70863
▁comprend	-9.70915
▁amene	-9.70944
rez	-9.71071
▁interessante	-9.71099
▁tient	-9.71191
▁pa	-9.71198
▁croit	-9.71279
ni	-9.71684
oyons	-9.71717
▁langues	-9.7172
ul	-9.71725
▁convaincre	-9.72071
▁football	-9.72071
▁solution	-9.72071
▁match	-9.72072
▁importance	-9.72072
▁dort	-9.72072
lle	-9.72083
▁raconte	-9.72116
▁assurer	-9.72175
▁comporte	-9.72246
▁moque	-9.72252
▁impatient	-9.72288
▁aura	-9.72411
▁etage	-9.72549
▁cest	-9.72752
tre	-9.72957
▁bouche	-9.73353
▁disparu	-9.73353
▁nerveux	-9.73353
▁agreable	-9.73354
▁date	-9.73371
▁generalement	-9.73372
▁absent	-9.7342
▁pecher	-9.73538
▁aie	-9.73858
▁suivi	-9.73862
▁champ	-9.74353
▁allume	-9.74389
▁proteger	-9.74542
▁ennemi	-9.74566
▁preferee	-9.74598
▁visiter	-9.74809
▁brise	-9.74844
▁etat	-9.74895
▁tache	-9.749
▁dejeune	-9.75353
▁pleine	-9.75468
▁patient	-9.75485
▁truc	-9.75913
▁john	-9.75968
▁octobre	-9.75968
▁veritable	-9.75968
▁village	-9.75968
▁chef	-9.75968
gre	-9.75973
▁pensait	-9.75981
▁lors	-9.76343
▁balle	-9.76444
▁prendra	-9.76714
de	-9.76734
▁epouser	-9.76791
ich	-9.7689
ssez	-9.76955
▁controle	-9.77151
ol	-9.77173
▁heureuses	-9.77249
▁valise	-9.77256
▁clair	-9.77277
▁londres	-9.77301
▁retraite	-9.77301
▁silencieux	-9.77301
▁savent	-9.77302
▁appartient	-9.77323
▁reconnu	-9.77374
▁prendrai	-9.77584
▁peint	-9.7775
▁songe	-9.779
▁occupes	-9.78171
▁mer	-9.78395
▁voler	-9.78431
▁manquer	-9.78647
▁dommage	-9.78653
▁ensuite	-9.78653
▁printemps	-9.78653
▁thomas	-9.78653
▁distance	-9.78653
▁amoureuse	-9.78661
▁faux	-9.78665
▁japonaise	-9.78735
▁gentille	-9.78813
▁br	-9.78921
▁prive	-9.79194
▁fruits	-9.79272
▁serons	-9.79329
vint	-9.79411
▁soupe	-9.79789
▁blessee	-9.7986
▁vienne	-9.79946
▁chocolat	-9.80023
▁eglise	-9.80023
▁permettre	-9.80059
▁lune	-9.80159
▁paire	-9.80252
▁grandi	-9.80303
▁faisais	-9.80321
▁abandonner	-9.80366
▁pousse	-9.80776
▁paix	-9.81411
▁permission	-9.81415
▁mensonge	-9.81421
▁absolument	-9.81423
▁lache	-9.81433
ille	-9.81446
▁trucs	-9.8147
▁faible	-9.8148
irent	-9.81637
▁brule	-9.81757
ar	-9.81876
▁arrives	-9.81981
▁regrette	-9.82173
▁arbres	-9.82312
▁fond	-9.82509
▁null	-9.82633
▁ecris	-9.8282
▁pierre	-9.8282
▁cloche	-9.8282
▁eteindre	-9.82822
▁medicament	-9.82852
▁grands	-9.8288
▁coupable	-9.82917
▁france	-9.82923
gu	-9.82932
▁nouveaux	-9.82952
▁presse	-9.82955
▁fume	-9.83016
▁traverse	-9.8306
▁sou	-9.83101
▁regard	-9.83454
ide	-9.83518
▁assister	-9.83561
ard	-9.83794
▁pretes	-9.83794
▁echecs	-9.83827
be	-9.8388
rions	-9.84058
▁compagnie	-9.84248
▁critique	-9.84248
▁incendie	-9.84248
▁marre	-9.84256
▁crayon	-9.84284
▁explication	-9.84297
▁conge	-9.84313
▁sang	-9.84354
▁droite	-9.84477
▁sort	-9.84668
ch	-9.84693
▁sortez	-9.84808
▁conduis	-9.84885
▁seules	-9.84921
▁lycee	-9.84967
▁ligne	-9.84973
▁plante	-9.85229
▁rate	-9.8526
▁base	-9.85277
▁repos	-9.85668
▁sombre	-9.85698
▁larmes	-9.85713
▁remettre	-9.8574
▁correctement	-9.85742
▁hate	-9.85757
▁jambe	-9.85776
▁tenez	-9.85808
▁cru	-9.86143
▁parie	-9.86287
▁emmene	-9.86316
▁paris	-9.86352
▁auras	-9.86439
▁voisins	-9.86487
▁tienne	-9.86491
▁bleu	-9.86539
▁partage	-9.86755
▁particulier	-9.86787
▁traverser	-9.86939
ing	-9.87072
▁vraie	-9.87128
▁europe	-9.87168
▁acquisition	-9.87168
▁resolu	-9.87168
▁precisement	-9.87172
▁menteur	-9.87174
▁comprenez	-9.8718
▁peinture	-9.87195
▁eh	-9.87195
▁foule	-9.87307
▁restes	-9.87708
urez	-9.88083
▁verifie	-9.88303
▁raconter	-9.88385
▁sures	-9.88392
▁freres	-9.88415
▁commis	-9.88656
▁hasard	-9.88661
▁salaire	-9.88661
▁siege	-9.88671
▁devraient	-9.88684
▁enerve	-9.88698
▁soient	-9.88727
eu	-9.88761
▁billet	-9.88778
▁chanceux	-9.88804
▁haute	-9.89176
ion	-9.89207
▁devait	-9.89221
▁alla	-9.89415
▁fasses	-9.8942
▁realise	-9.89883
▁put	-9.89885
▁mise	-9.89904
▁invites	-9.8995
▁sonne	-9.90001
▁connaisse	-9.90028
▁depense	-9.90063
▁couper	-9.90138
▁chaleur	-9.90172
▁epoque	-9.90176
▁urgence	-9.90176
▁legumes	-9.90176
▁malheureuse	-9.90177
▁assey	-9.90178
▁refusa	-9.90178
▁entierement	-9.90218
▁arriva	-9.90228
▁effraye	-9.90306
▁parait	-9.90317
▁art	-9.9041
▁respect	-9.90581
▁paie	-9.90661
▁marrant	-9.90861
elle	-9.91077
con	-9.9112
▁chaude	-9.91487
▁nouvel	-9.9169
▁morceau	-9.91699
▁energie	-9.91714
▁memoire	-9.91714
▁valeur	-9.91715
▁croyez	-9.91732
▁trouvait	-9.91766
▁jeter	-9.91874
▁per	-9.9195
ssa	-9.91962
▁riz	-9.91997
▁puni	-9.92088
▁impressionne	-9.92381
▁p	-9.9249
au	-9.92877
cha	-9.93025
▁sale	-9.9315
▁probable	-9.93187
▁confectionne	-9.93277
▁plaindre	-9.93277
nce	-9.93319
ieme	-9.93411
▁vire	-9.93493
▁construit	-9.93689
▁imaginer	-9.93826
▁amuser	-9.93973
om	-9.93975
co	-9.94155
▁po	-9.94165
▁venus	-9.94569
ign	-9.94586
▁sel	-9.94674
▁exercice	-9.94864
▁timide	-9.94864
▁allemand	-9.94864
▁voyons	-9.94867
▁papa	-9.94872
▁direction	-9.94977
▁tenu	-9.95005
▁mangez	-9.95039
▁dirais	-9.95061
▁programme	-9.95066
▁matinee	-9.95068
▁fer	-9.95137
▁contrarie	-9.9545
▁oublier	-9.95485
▁entraine	-9.95488
▁sentiments	-9.95537
▁verrai	-9.95862
▁supporte	-9.95867
ler	-9.96039
▁cou	-9.96259
nd	-9.96407
▁allonge	-9.96477
▁attaque	-9.96477
▁bagages	-9.96477
▁demandez	-9.96481
▁appellerai	-9.96531
▁vitesse	-9.96563
end	-9.96632
▁rempli	-9.9665
oivent	-9.96728
▁sauver	-9.96869
▁recommande	-9.97238
▁vert	-9.97303
▁grandes	-9.97316
▁reves	-9.97541
▁ex	-9.97588
▁chansons	-9.97777
▁abord	-9.97785
▁morts	-9.97846
aire	-9.97939
▁baisse	-9.97995
▁grave	-9.98028
▁soudain	-9.98109
▁costume	-9.98116
▁deroule	-9.98116
▁horrible	-9.98116
▁incapable	-9.98116
▁passeport	-9.98116
▁theorie	-9.98116
▁oiseaux	-9.98137
▁copie	-9.98203
▁debarrasser	-9.98298
qu	-9.98299
▁resultat	-9.98393
▁cartes	-9.98526
▁employe	-9.98725
▁vendu	-9.98798
▁idiote	-9.98832
▁lettres	-9.99047
▁memes	-9.99098
▁depeche	-9.99191
tes	-9.99253
▁mene	-9.99423
les	-9.99488
▁resultats	-9.99503
prenons	-9.99514
perons	-9.99601
▁interessee	-9.99657
▁bicyclette	-9.99783
▁menace	-9.99783
▁navire	-9.99783
▁portefeuille	-9.99783
▁chine	-9.99783
▁talent	-9.99785
▁camion	-9.99788
▁portable	-9.99791
▁entend	-9.99901
ise	-10.0001
▁voleur	-10.0015
▁bo	-10.0027
▁desire	-10.0038
▁peche	-10.005
▁unique	-10.0052
lo	-10.0064
▁met	-10.0117
raient	-10.012
▁respecte	-10.0147
▁conversation	-10.0148
▁discussion	-10.0148
▁piscine	-10.0148
▁pizza	-10.0148
▁faudra	-10.0148
▁decida	-10.0148
▁vaisselle	-10.0148
▁donnerai	-10.0149
▁repond	-10.0163
▁aiderai	-10.017
andis	-10.0178
▁devais	-10.0198
▁eteint	-10.0205
▁souhait	-10.0205
▁voitures	-10.0236
▁decouvrir	-10.0245
▁ailles	-10.025
▁charge	-10.0269
gi	-10.0285
ins	-10.0292
▁enseigner	-10.0313
▁parlent	-10.0317
▁golf	-10.032
▁monnaie	-10.032
▁zoo	-10.032
▁samedi	-10.032
▁poeme	-10.032
▁refaire	-10.032
▁connaissait	-10.0321
▁attentivement	-10.0322
▁sert	-10.0323
ile	-10.0332
▁tien	-10.0342
▁cacher	-10.0343
▁laissa	-10.0355
▁page	-10.0371
▁appelez	-10.0391
▁approche	-10.0439
▁pars	-10.0439
▁tomba	-10.0448
▁commun	-10.0451
▁juge	-10.0462
▁trahi	-10.0471
▁soi	-10.0474
▁arriere	-10.0496
▁veste	-10.0496
▁ouvrage	-10.0496
▁cancer	-10.0496
▁mili	-10.0496
▁discute	-10.0497
▁roi	-10.0502
▁maman	-10.051
▁policier	-10.0533
▁monter	-10.0534
▁folle	-10.0534
▁difficultes	-10.0589
ui	-10.0591
▁echapper	-10.06
▁eloigne	-10.0607
▁assise	-10.0611
▁bar	-10.0616
▁vint	-10.063
▁differentes	-10.0648
▁couche	-10.0651
▁mauvaises	-10.0661
▁tirer	-10.0673
▁aveugle	-10.0674
▁drogue	-10.0674
▁mignonne	-10.0679
▁fil	-10.0721
▁disposez	-10.0765
▁deranger	-10.078
nne	-10.0784
▁veuilles	-10.0801
▁o	-10.0804
▁demenage	-10.0806
▁devine	-10.0843
▁egal	-10.0855
▁campagne	-10.0856
▁fassiez	-10.0856
▁inutile	-10.0856
▁magnifique	-10.0856
▁populaire	-10.0856
▁declare	-10.0856
▁reviens	-10.0856
▁blanche	-10.0856
▁soulage	-10.0856
yoto	-10.0857
▁realite	-10.0857
▁alliez	-10.0859
▁disposons	-10.0861
▁caisse	-10.0883
▁boisson	-10.0903
▁informations	-10.091
▁pensent	-10.0913
▁pousser	-10.0914
▁envoyer	-10.0921
qui	-10.0921
▁echappe	-10.0932
▁vivant	-10.094
▁repeter	-10.0945
ames	-10.0951
▁restee	-10.0964
▁compare	-10.0964
▁arreta	-10.0976
tenait	-10.0998
▁aimer	-10.1008
▁pe	-10.1023
▁eveille	-10.1023
▁repose	-10.1029
▁terrible	-10.1032
▁angleterre	-10.1041
▁circulation	-10.1041
▁innocent	-10.1041
▁souffre	-10.1041
▁urgent	-10.1041
▁fortune	-10.1041
▁ayons	-10.1043
▁video	-10.1047
▁prise	-10.1073
▁preuve	-10.109
▁laisserai	-10.1122
▁details	-10.1124
euse	-10.1135
▁disputer	-10.1136
▁cour	-10.114
▁bienvenue	-10.1143
▁emmener	-10.1153
▁matins	-10.1167
▁apporter	-10.1174
▁differente	-10.1177
ations	-10.1185
▁habille	-10.1196
▁vus	-10.1213
▁exemple	-10.123
▁imagination	-10.123
▁peindre	-10.123
▁preoccupe	-10.123
▁meurtre	-10.123
▁artiste	-10.1231
▁centre	-10.1237
▁sentez	-10.1241
pres	-10.1259
▁chere	-10.126
▁rumeur	-10.1281
▁depart	-10.1281
▁poche	-10.1284
▁soldats	-10.1285
▁meilleurs	-10.1288
▁occupees	-10.1299
▁futur	-10.1304
▁indiquer	-10.1311
▁chinois	-10.1314
▁saviez	-10.1342
▁vi	-10.1364
▁intelligente	-10.1371
ient	-10.1379
▁admire	-10.1383
▁obligee	-10.1388
▁devenue	-10.1392
▁hesite	-10.1406
▁partis	-10.1411
el	-10.1416
▁station	-10.142
▁alcool	-10.1421
▁baseball	-10.1422
▁bonheur	-10.1422
▁celibataire	-10.1422
▁contrat	-10.1422
▁egard	-10.1422
▁gars	-10.1422
▁dentiste	-10.1423
▁ennuyeux	-10.1424
▁image	-10.1424
▁clairement	-10.1428
ture	-10.1439
▁engage	-10.1448
▁ameliore	-10.1455
nes	-10.146
▁sortit	-10.1461
▁course	-10.1467
▁dingue	-10.1477
▁echec	-10.1479
ver	-10.1482
▁notes	-10.1483
▁serre	-10.1489
▁saches	-10.1504
▁emporter	-10.1538
non	-10.1552
▁mecs	-10.1553
▁boit	-10.1569
▁os	-10.1592
▁derniers	-10.1597
▁maries	-10.1603
▁toucher	-10.1603
▁epuise	-10.161
▁brosse	-10.1618
▁ivre	-10.1618
▁silence	-10.1618
▁tremblement	-10.1618
▁convient	-10.1619
▁merveilleux	-10.1619
▁devient	-10.1619
▁interet	-10.1622
▁tourner	-10.1631
▁sand	-10.1638
▁pi	-10.1653
▁posa	-10.1656
▁films	-10.1661
ets	-10.1667
▁vote	-10.1668
▁limite	-10.1677
id	-10.1678
▁allees	-10.1689
▁veuille	-10.169
▁rende	-10.1698
▁emporte	-10.1699
▁organise	-10.1713
▁blesser	-10.1718
▁emprunte	-10.1722
▁com	-10.1744
▁jouai	-10.175
▁cassee	-10.1765
▁viendrai	-10.1778
▁cents	-10.1783
ng	-10.1787
▁em	-10.1814
▁courage	-10.1816
teur	-10.1818
▁assurance	-10.1818
▁copain	-10.1818
▁essayons	-10.1818
▁jaloux	-10.1818
▁population	-10.1818
▁suffisant	-10.1818
▁atteint	-10.1818
▁nerveuse	-10.1818
▁malin	-10.1825
▁decede	-10.1832
▁reveiller	-10.1854
▁suspect	-10.1857
mment	-10.1869
▁feuilles	-10.1871
▁combat	-10.1875
▁conscient	-10.1876
▁diplome	-10.1876
▁doigt	-10.1882
▁traiter	-10.1884
▁voit	-10.189
▁efforts	-10.1891
▁saoul	-10.1899
▁apprends	-10.1903
▁fis	-10.1904
▁rever	-10.191
▁enseignante	-10.1925
▁fermee	-10.193
ser	-10.195
▁agir	-10.1968
quel	-10.1977
▁b	-10.1978
▁quant	-10.1984
▁divorce	-10.1988
▁reserve	-10.1998
▁gene	-10.202
▁regime	-10.2022
▁systeme	-10.2022
▁enfance	-10.2022
▁amitie	-10.2022
▁invitation	-10.2023
▁pareille	-10.2025
▁ouvrit	-10.2028
▁survenu	-10.2034
▁ba	-10.2047
▁dirige	-10.2048
▁ouvrez	-10.2056
▁yens	-10.2062
▁eviter	-10.2077
▁bi	-10.2081
▁fi	-10.2083
op	-10.2095
▁disait	-10.2104
▁genial	-10.2105
▁personnel	-10.212
▁retirer	-10.2121
▁nique	-10.2136
▁sauter	-10.2173
▁armes	-10.2176
isez	-10.2182
▁couvert	-10.2182
▁decue	-10.2182
▁ho	-10.2201
▁bouge	-10.2206
▁animal	-10.2231
▁cercle	-10.2231
▁souffle	-10.2231
▁voulaient	-10.2231
▁credit	-10.2231
▁suffit	-10.2231
▁excellent	-10.224
▁sommet	-10.224
og	-10.2243
▁chanteur	-10.2243
eb	-10.226
▁biscuits	-10.2262
▁reposer	-10.2262
▁terminee	-10.2272
▁servi	-10.2282
▁viennent	-10.2282
▁plat	-10.2294
▁demissionner	-10.2298
▁complet	-10.231
▁voie	-10.2316
▁pardonne	-10.2327
▁fenetres	-10.2331
▁jou	-10.2342
▁rendue	-10.2352
▁changement	-10.2353
▁armee	-10.2355
▁rendrai	-10.2367
▁prouver	-10.2379
▁demi	-10.2386
▁normal	-10.2396
▁sage	-10.2401
▁entra	-10.2425
▁jambes	-10.2432
▁plantes	-10.2437
▁quinze	-10.2443
▁aussitot	-10.2443
▁piege	-10.2443
▁atteindre	-10.2444
▁semblant	-10.2444
▁croyais	-10.2444
▁soif	-10.2446
▁jac	-10.2448
▁effet	-10.2448
▁ecrivez	-10.2448
▁profondement	-10.2449
▁pieces	-10.245
▁assit	-10.2451
▁augmente	-10.2453
▁reveillee	-10.2509
▁mignon	-10.2515
▁repare	-10.2515
▁file	-10.2543
▁informe	-10.2547
▁etrangers	-10.2559
▁remis	-10.2574
▁rencontree	-10.2587
▁general	-10.2615
urions	-10.2622
▁dame	-10.2625
▁couramment	-10.2661
▁detendre	-10.2661
▁horreur	-10.2661
▁ordinaire	-10.2661
▁poupee	-10.2661
▁prevoy	-10.2661
▁esperais	-10.2661
▁toilettes	-10.2661
▁usage	-10.2661
▁panne	-10.2663
▁cout	-10.2674
▁comportement	-10.2676
▁elu	-10.2691
mo	-10.2698
▁natif	-10.2699
▁resterai	-10.273
▁serieuse	-10.2733
▁possibilite	-10.2743
▁vues	-10.2764
▁ha	-10.2786
▁excite	-10.2806
▁dine	-10.2815
▁reconnaissante	-10.2832
▁impatiente	-10.2845
▁ravie	-10.2846
▁toit	-10.2865
no	-10.2866
▁mec	-10.2871
▁commencons	-10.2883
▁fievre	-10.2883
▁guere	-10.2883
▁herbe	-10.2883
▁institutrice	-10.2883
▁recemment	-10.2883
▁supermarche	-10.2883
▁aimais	-10.2883
▁situe	-10.2883
▁infirmiere	-10.2889
▁rappelez	-10.2889
▁chanceuse	-10.289
▁bouger	-10.2909
▁deprime	-10.2912
▁mentionne	-10.2923
▁controler	-10.2924
▁etrangere	-10.2933
▁demarrer	-10.2943
▁oreille	-10.2946
▁essayai	-10.2955
un	-10.2959
▁membre	-10.2971
▁fleur	-10.2972
▁dispute	-10.2984
▁joueur	-10.2986
▁leva	-10.3007
▁ordres	-10.3018
▁rec	-10.3027
▁reflechi	-10.3041
▁portez	-10.308
▁pre	-10.3086
▁concerne	-10.311
▁familier	-10.311
▁garage	-10.311
▁improbable	-10.311
▁journaux	-10.311
▁mathematiques	-10.311
▁pantalon	-10.311
▁treize	-10.311
▁veniez	-10.311
▁attache	-10.3111
▁apparence	-10.3111
▁bague	-10.3111
▁ferions	-10.3113
▁large	-10.3116
▁dises	-10.3117
▁belles	-10.3135
▁timbres	-10.3167
▁enleve	-10.3173
▁partager	-10.319
▁saute	-10.3191
▁compose	-10.3195
▁responsabilite	-10.3202
▁epaule	-10.3202
▁ordre	-10.3204
▁promener	-10.3207
▁fatigues	-10.3234
est	-10.3238
▁disposes	-10.3252
▁oreilles	-10.3252
▁disposer	-10.326
ven	-10.3262
▁inquieter	-10.3279
▁evite	-10.3281
▁exige	-10.3291
▁garer	-10.3296
▁nu	-10.3317
▁poissons	-10.3322
▁projets	-10.3338
▁beurre	-10.3343
▁coffre	-10.3343
▁ennuie	-10.3343
▁essence	-10.3343
▁minuit	-10.3343
▁odeur	-10.3343
▁pouviez	-10.3343
▁spectacle	-10.3343
▁expert	-10.3343
▁club	-10.3343
▁malheureux	-10.3343
▁barbe	-10.3344
▁vendredi	-10.3345
▁moteur	-10.3348
▁etagere	-10.3348
tant	-10.3353
▁enquete	-10.3355
to	-10.3375
▁promesses	-10.338
▁oppose	-10.338
▁censee	-10.3387
▁admet	-10.3389
▁suivant	-10.3405
▁apprecierais	-10.3406
▁ecoutez	-10.342
du	-10.3429
▁perd	-10.343
▁nourrir	-10.3434
▁magazine	-10.3439
▁defi	-10.3444
▁conte	-10.3467
▁debrouille	-10.347
▁souris	-10.3477
▁contrariee	-10.3493
▁parfaite	-10.3494
▁ball	-10.3511
lait	-10.3518
▁plaint	-10.3525
▁inviter	-10.3526
▁jeux	-10.3529
▁complique	-10.3532
▁progres	-10.3559
▁tenue	-10.356
▁accorde	-10.3562
▁estime	-10.3571
▁mont	-10.3573
▁mode	-10.3577
▁ignorer	-10.358
▁efficace	-10.3581
▁foret	-10.3581
▁jalouse	-10.3581
▁totalement	-10.3581
▁parvenir	-10.3581
▁grace	-10.3582
urons	-10.3586
▁doue	-10.3587
▁pretend	-10.3589
dre	-10.3598
▁bal	-10.36
aurais	-10.3622
eux	-10.3624
▁reponses	-10.3626
▁parla	-10.3626
▁venues	-10.3633
urs	-10.3669
▁petits	-10.3692
▁bleue	-10.3693
▁autorisee	-10.3696
▁americain	-10.3699
▁loupe	-10.3728
▁membres	-10.3729
▁perdit	-10.3768
▁riches	-10.3769
ables	-10.3773
▁batt	-10.3778
▁blesses	-10.3786
▁trou	-10.3791
▁enorme	-10.3816
mon	-10.3818
▁addition	-10.3825
▁cinquante	-10.3825
▁explosion	-10.3825
▁offert	-10.3825
▁patience	-10.3825
▁pouvions	-10.3825
▁temperature	-10.3825
▁courrier	-10.3825
▁immeuble	-10.3825
▁allions	-10.3825
▁traduire	-10.3825
▁curieux	-10.3826
▁rompu	-10.3827
▁uvre	-10.3829
▁beaux	-10.3835
▁forces	-10.3842
▁souri	-10.3846
▁souhaiterais	-10.385
▁preferes	-10.3855
▁trouva	-10.3874
▁cesser	-10.3877
▁flics	-10.3893
▁donnees	-10.3908
▁sentie	-10.3928
▁volontaire	-10.3933
▁fous	-10.3935
▁travaillent	-10.394
▁plans	-10.3947
▁crie	-10.3949
▁joues	-10.3959
▁indique	-10.3969
▁arrivent	-10.3974
▁exprimer	-10.3976
▁exp	-10.3988
▁courte	-10.3993
dit	-10.3996
▁sortes	-10.3997
▁travaillez	-10.402
▁suicide	-10.4027
mp	-10.4031
▁prevenu	-10.4035
▁accompagne	-10.4044
▁entier	-10.4063
igne	-10.4069
▁violon	-10.4075
▁epargne	-10.4075
▁loyer	-10.4075
▁objet	-10.4075
▁proximite	-10.4075
▁gaz	-10.4075
▁augmentation	-10.4075
▁science	-10.4075
▁tarte	-10.4076
▁aimons	-10.4077
▁bete	-10.408
▁manges	-10.4083
▁depourvu	-10.4118
ill	-10.4122
▁retrouve	-10.4172
▁leger	-10.4178
▁prenne	-10.419
▁terme	-10.4191
ud	-10.4197
oir	-10.4205
▁annule	-10.4211
▁special	-10.4212
um	-10.4212
▁fiers	-10.422
▁partit	-10.4233
▁existe	-10.4244
▁pot	-10.4252
▁prudents	-10.4252
▁servir	-10.426
▁consacre	-10.4264
▁rentree	-10.4276
▁toile	-10.4276
ies	-10.4293
▁devr	-10.4302
pli	-10.4305
▁affecte	-10.4331
▁assistance	-10.4331
▁estomac	-10.4331
▁frappa	-10.4331
▁publie	-10.4331
▁ressens	-10.4331
▁sensible	-10.4331
▁raisonnable	-10.4331
▁dessous	-10.4331
▁education	-10.4331
▁fixe	-10.4331
▁connaissais	-10.4332
▁ecrivain	-10.4332
▁capitale	-10.4338
▁concentrer	-10.4347
▁contacter	-10.4349
▁heros	-10.4359
▁attendons	-10.4363
▁lecon	-10.4374
▁souper	-10.4377
▁vase	-10.4383
▁noms	-10.4385
▁depecher	-10.4394
▁tante	-10.4397
▁averti	-10.4401
▁dote	-10.4422
▁participer	-10.4422
liments	-10.4431
▁cherchez	-10.4438
▁seche	-10.4445
▁facture	-10.4454
▁difficulte	-10.4455
▁remercie	-10.4466
ule	-10.447
▁eprouve	-10.4475
▁voisin	-10.4475
sentais	-10.4512
sons	-10.4561
▁trouves	-10.4569
▁rencontrees	-10.4592
▁eclair	-10.4593
▁acquerir	-10.4594
▁applique	-10.4594
▁banc	-10.4594
▁culture	-10.4594
▁meprise	-10.4594
▁tiroir	-10.4594
▁survecu	-10.4594
▁presence	-10.4595
▁plaign	-10.4595
▁economie	-10.4596
▁quartier	-10.4596
▁moral	-10.4598
▁vivons	-10.46
▁reviendra	-10.4601
▁invitee	-10.461
▁buvez	-10.461
▁lourd	-10.4611
▁mondiale	-10.4613
▁cherches	-10.4625
▁habituee	-10.4627
▁accompagner	-10.4628
▁devra	-10.4639
▁passait	-10.4652
▁remonter	-10.4658
▁test	-10.4666
▁fie	-10.4678
▁lumieres	-10.4686
▁ro	-10.4688
▁envisage	-10.4707
▁passa	-10.4713
▁serviette	-10.4723
▁montra	-10.4725
▁conduite	-10.473
cer	-10.4754
ade	-10.4756
▁attendrai	-10.4764
▁jouez	-10.4766
▁mangent	-10.4772
▁annonce	-10.4797
▁fac	-10.4811
▁entendue	-10.4814
onze	-10.4818
▁verrouille	-10.4831
▁lance	-10.4836
▁queue	-10.485
▁chatte	-10.4855
▁naturel	-10.4857
▁fumes	-10.4859
▁nature	-10.4861
▁conclu	-10.4864
▁precis	-10.4864
▁colline	-10.4865
▁evident	-10.4865
▁fromage	-10.4865
▁liquide	-10.4865
▁matiere	-10.4865
▁reporte	-10.4865
▁ceinture	-10.4865
▁conference	-10.4865
▁jaune	-10.4865
▁ailleurs	-10.4866
▁etudiante	-10.4871
▁repondit	-10.4879
▁continua	-10.4882
▁chateau	-10.4886
▁mordu	-10.4894
▁histoires	-10.4907
▁laissee	-10.4908
▁sud	-10.491
ha	-10.4915
▁desir	-10.4919
▁embauche	-10.4931
▁ressenti	-10.4947
▁somme	-10.4956
▁rater	-10.4964
▁etoiles	-10.4968
▁mou	-10.4973
man	-10.4975
▁reproche	-10.4983
▁longs	-10.5001
▁impressionnee	-10.5007
▁environs	-10.5009
▁revienne	-10.5023
▁cuisinier	-10.5031
▁mortes	-10.5062
▁permett	-10.5073
▁semblent	-10.5074
▁sejourne	-10.5082
▁apprecier	-10.5084
▁consomme	-10.5094
▁oublierai	-10.5122
▁inter	-10.5132
▁failli	-10.5138
▁froide	-10.514
▁candidat	-10.514
▁ver	-10.5141
▁bonjour	-10.5143
▁branche	-10.5143
▁detruit	-10.5143
▁formulaire	-10.5143
▁franchement	-10.5143
▁locuteur	-10.5143
▁monsieur	-10.5143
▁prenom	-10.5143
▁paquet	-10.5143
▁chaussettes	-10.5143
▁nord	-10.5143
▁crise	-10.5144
endance	-10.5144
▁exception	-10.5145
▁descendre	-10.5145
▁quantite	-10.5146
▁poulet	-10.5151
▁dors	-10.5152
▁beaute	-10.5159
▁poli	-10.5159
▁attendait	-10.5159
▁parlait	-10.5168
▁disiez	-10.5182
▁escaliers	-10.5192
▁saint	-10.5204
▁accroche	-10.5207
▁enregistre	-10.5213
▁retarde	-10.5227
▁fumee	-10.523
▁revi	-10.5237
▁ancien	-10.5271
▁apprecient	-10.5285
▁orange	-10.5286
▁disponible	-10.5288
▁raisons	-10.5305
▁sable	-10.531
▁louer	-10.532
▁difficiles	-10.5342
▁poches	-10.5349
▁ajouter	-10.5355
ub	-10.5355
▁ment	-10.536
▁nez	-10.5364
▁regardes	-10.5376
▁convaincue	-10.5393
▁eus	-10.5414
▁negoci	-10.5421
▁medicaments	-10.5422
▁manuel	-10.5423
▁absence	-10.5428
▁fausse	-10.5428
▁genie	-10.5428
▁illegal	-10.5428
▁insulte	-10.5428
▁internet	-10.5428
▁miracle	-10.5428
▁rejete	-10.5428
▁theatre	-10.5428
▁double	-10.5428
▁nuages	-10.5428
▁sachiez	-10.5428
▁creme	-10.5428
▁rejoindre	-10.5428
▁baiser	-10.5428
▁interdit	-10.5429
▁commettre	-10.5429
▁mourut	-10.5429
▁trace	-10.543
▁role	-10.5431
▁acheta	-10.5433
▁amusee	-10.544
▁rappelles	-10.5442
▁frapper	-10.5447
▁persuader	-10.5447
▁gere	-10.5475
▁auteur	-10.5478
▁parvenu	-10.5486
ssiez	-10.5489
▁vente	-10.5494
▁choque	-10.5499
▁be	-10.5502
▁prudentes	-10.551
▁cousin	-10.5514
▁basse	-10.5524
chi	-10.5528
isse	-10.5538
▁fache	-10.5542
▁remise	-10.5544
▁roses	-10.5554
▁forcee	-10.5566
▁canadien	-10.5571
aille	-10.5575
▁ote	-10.5586
▁joli	-10.5597
▁partons	-10.5602
▁nettoye	-10.5607
▁voudrai	-10.5622
▁osa	-10.5623
▁petites	-10.563
▁trouvee	-10.563
▁effrayee	-10.5649
▁principale	-10.5662
lant	-10.5675
▁deviner	-10.5679
▁saison	-10.5682
▁invente	-10.5697
viennent	-10.5698
sant	-10.5701
▁fermes	-10.5703
▁accompli	-10.571
▁conges	-10.5711
▁cruel	-10.5716
▁construi	-10.5718
▁approuve	-10.5722
▁ascenseur	-10.5722
▁fassions	-10.5722
▁instructions	-10.5722
▁soixante	-10.5722
▁figure	-10.5722
▁merveilleuse	-10.5723
▁derobe	-10.5723
▁demeure	-10.5727
▁inde	-10.5728
▁correct	-10.5729
▁honnetete	-10.5729
▁election	-10.573
▁entendit	-10.5741
▁etendu	-10.5767
▁effectue	-10.5772
tais	-10.5773
ifi	-10.579
▁maire	-10.5796
▁capables	-10.5808
▁gele	-10.5827
▁rep	-10.583
▁aida	-10.583
▁prisonniers	-10.5835
▁nie	-10.5843
▁descend	-10.5844
▁neiger	-10.5852
▁coule	-10.5852
▁foi	-10.5868
go	-10.5871
▁nomme	-10.5872
▁relation	-10.5883
▁objectif	-10.5884
▁scientifique	-10.5884
▁client	-10.5885
▁grimpe	-10.5886
▁fruit	-10.5888
▁determine	-10.5893
▁ordinateurs	-10.5909
▁remette	-10.5913
bre	-10.5914
▁surveille	-10.5939
▁plainte	-10.5941
▁ameliorer	-10.5973
▁charger	-10.5979
vions	-10.6014
▁tenta	-10.6015
▁respecter	-10.6023
▁satisfaite	-10.6024
▁alarme	-10.6025
▁coincidence	-10.6025
▁licencie	-10.6025
▁methode	-10.6025
▁ocean	-10.6025
▁renverse	-10.6025
▁vehicule	-10.6025
▁recevoir	-10.6026
▁expres	-10.6026
▁vivait	-10.6026
▁assiette	-10.6026
▁paresseux	-10.6026
▁menteuse	-10.6026
▁allemagne	-10.6028
▁gentillesse	-10.6028
▁parlais	-10.6028
▁quotidiennement	-10.6028
▁lampe	-10.6029
▁naissance	-10.6029
▁creve	-10.6029
▁sain	-10.6036
▁fonctionner	-10.604
ume	-10.6051
issons	-10.6051
▁battu	-10.6055
ction	-10.6055
▁reviendrai	-10.6056
▁personnelle	-10.6067
▁perdue	-10.6071
▁fatiguees	-10.6073
▁permet	-10.6077
sion	-10.6077
▁rendra	-10.6088
▁habituer	-10.6097
▁goute	-10.6102
▁rit	-10.6103
▁blessees	-10.6103
▁poster	-10.6109
▁examens	-10.611
▁penetrer	-10.6112
▁patiente	-10.6118
▁embarrasse	-10.6127
▁subi	-10.6135
▁ecoutes	-10.6155
▁differents	-10.6163
▁clients	-10.6167
▁accorder	-10.6171
▁port	-10.6195
▁supplementaire	-10.6197
▁preferez	-10.62
▁perds	-10.6208
▁clef	-10.6211
▁coups	-10.6227
▁empeche	-10.6229
▁mechant	-10.6233
▁amuses	-10.6236
▁profond	-10.6238
▁travailles	-10.6253
issent	-10.6256
▁detail	-10.6261
▁durer	-10.627
▁exact	-10.628
▁retrouver	-10.6288
▁pointe	-10.6289
ble	-10.6291
▁mord	-10.6303
▁risques	-10.6306
▁site	-10.6309
▁noye	-10.6313
▁gaspille	-10.6313
▁lourde	-10.6318
▁criminel	-10.6321
▁decor	-10.6322
▁excellente	-10.6324
▁vieilles	-10.6333
▁encourage	-10.6338
▁album	-10.6338
▁capitaine	-10.6338
▁chandail	-10.6338
▁confortable	-10.6338
▁constamment	-10.6338
▁consulter	-10.6338
▁cuillere	-10.6338
▁eclata	-10.6338
▁evanoui	-10.6338
▁fichier	-10.6338
▁honneur	-10.6338
▁liberte	-10.6338
▁possession	-10.6338
▁remede	-10.6338
▁assied	-10.6338
▁ecrase	-10.6338
▁requis	-10.6338
▁lecture	-10.6338
▁ambition	-10.6338
▁chauffeur	-10.6338
▁detonation	-10.6338
▁electricite	-10.6338
▁tendu	-10.6339
▁directement	-10.6339
▁epi	-10.6339
▁adorable	-10.634
▁viennes	-10.634
▁hauteur	-10.6345
▁fiable	-10.6346
▁refuser	-10.6347
▁canadienne	-10.6347
▁effectuer	-10.6348
▁valises	-10.6349
oche	-10.6351
▁troisieme	-10.6351
▁no	-10.6352
▁connaissent	-10.6362
▁remets	-10.6363
▁parte	-10.6372
▁supposee	-10.6386
▁hurler	-10.6404
▁commentaire	-10.6407
▁echange	-10.6408
▁demie	-10.6411
▁regler	-10.6416
▁temoin	-10.642
pte	-10.6423
▁offrir	-10.6437
▁souhaitez	-10.6448
▁desespere	-10.6459
▁perde	-10.6463
▁annuler	-10.6466
▁grossier	-10.648
▁crier	-10.6495
▁obeir	-10.6508
▁conv	-10.6514
▁document	-10.652
▁ecart	-10.6522
▁rose	-10.6522
▁arrange	-10.6565
▁maisons	-10.6568
▁four	-10.6581
▁propose	-10.66
▁frequen	-10.6615
▁interromp	-10.6627
imes	-10.6629
▁rase	-10.663
▁billets	-10.6635
▁correcte	-10.6643
▁pareil	-10.6656
▁brouillard	-10.666
▁chevaux	-10.666
▁douzaine	-10.666
▁evidence	-10.666
▁foot	-10.666
▁horloge	-10.666
▁malentendu	-10.666
▁espace	-10.666
▁quarante	-10.666
▁horaire	-10.666
▁salade	-10.666
▁scene	-10.6661
▁ecoule	-10.6661
▁planete	-10.6661
▁directeur	-10.6661
▁travaillons	-10.6661
▁admettre	-10.6663
▁italie	-10.6663
▁acteur	-10.6665
▁sienne	-10.6665
▁mission	-10.6666
▁connaissons	-10.6667
▁suggestion	-10.6668
▁quitta	-10.6673
▁vivez	-10.6679
▁legere	-10.6682
▁ferons	-10.6683
▁capte	-10.6709
▁fautes	-10.6739
▁profit	-10.6764
▁ren	-10.6783
▁fournir	-10.6784
▁etudi	-10.6789
▁demandais	-10.6798
▁descends	-10.6811
▁retira	-10.6816
▁ob	-10.6824
▁apprend	-10.6825
▁v	-10.6835
▁importantes	-10.6839
▁obei	-10.6864
▁trouvez	-10.6887
▁doigts	-10.6887
▁ras	-10.69
▁tromper	-10.692
▁feras	-10.6922
▁etrangeres	-10.6938
ole	-10.6951
▁dira	-10.6967
▁pleuvra	-10.6989
▁mensonges	-10.6991
etoffe	-10.6994
▁automne	-10.6994
▁ceremonie	-10.6994
▁fourchette	-10.6994
▁gueule	-10.6994
▁inconnu	-10.6994
▁libere	-10.6994
▁opportunite	-10.6994
▁produise	-10.6994
▁renvoye	-10.6994
▁atterri	-10.6994
▁impots	-10.6994
▁injuste	-10.6994
▁logique	-10.6994
▁tapis	-10.6994
▁metro	-10.6994
▁agissait	-10.6994
▁manche	-10.6994
▁violence	-10.6994
▁volonte	-10.6994
▁dessert	-10.6994
▁attitude	-10.6994
▁operation	-10.6994
▁sieste	-10.6994
▁choc	-10.6995
▁marque	-10.6995
▁expose	-10.6995
▁ferma	-10.6996
▁flo	-10.6998
▁patronne	-10.7002
▁cadeaux	-10.7003
▁blamer	-10.7004
▁tableaux	-10.7006
▁pale	-10.7013
▁teint	-10.7017
▁ennuyer	-10.7017
▁sortons	-10.7018
▁aidera	-10.7019
po	-10.7023
▁employer	-10.7023
ois	-10.7055
▁faisiez	-10.7058
▁aides	-10.7072
▁agee	-10.7078
▁demarre	-10.7081
▁i	-10.7082
▁couple	-10.7091
▁longues	-10.7111
his	-10.7121
▁voudr	-10.7137
▁autorises	-10.7144
▁pese	-10.7148
▁adorent	-10.7154
ger	-10.716
▁francaise	-10.717
▁romans	-10.7178
▁endormie	-10.7186
do	-10.7195
lu	-10.7205
▁possibilites	-10.7209
▁arriverait	-10.7214
▁jure	-10.723
▁preuves	-10.7248
▁choquee	-10.7254
▁endormir	-10.7265
▁employes	-10.7281
▁points	-10.7284
▁plaisante	-10.7296
▁amener	-10.7301
▁chances	-10.7301
aires	-10.7309
▁ennuye	-10.7311
▁produits	-10.7317
▁actuelle	-10.7331
▁conf	-10.7331
▁trouvent	-10.7334
▁claire	-10.7334
▁direct	-10.7334
▁climat	-10.7338
▁actrice	-10.7339
▁afrique	-10.7339
▁bourre	-10.7339
▁courriel	-10.7339
▁delicieux	-10.7339
▁fleuve	-10.7339
▁pensiez	-10.7339
▁preferable	-10.7339
▁recolte	-10.7339
▁retenir	-10.7339
▁retenu	-10.7339
▁similaire	-10.7339
▁aboie	-10.7339
▁reduir	-10.7339
▁usine	-10.7339
▁moderne	-10.7339
▁conserve	-10.7339
▁heurte	-10.7339
▁insiste	-10.7339
▁cheque	-10.7339
▁bande	-10.7339
▁cherchais	-10.7339
▁superbe	-10.734
▁soudainement	-10.734
▁comite	-10.734
▁jupe	-10.7341
▁pression	-10.7342
▁naif	-10.7342
▁cuit	-10.7342
▁journaliste	-10.7343
▁excitant	-10.7344
▁irons	-10.7347
▁craign	-10.7348
▁destin	-10.7354
▁qualite	-10.7373
▁mars	-10.7373
▁prononcer	-10.7375
ignez	-10.7375
▁corrige	-10.7376
▁partiel	-10.7376
▁reside	-10.7377
▁coutera	-10.7379
ton	-10.7394
pendant	-10.7397
▁passagers	-10.74
out	-10.7402
▁camp	-10.7404
▁appreciai	-10.7416
▁options	-10.7421
▁virer	-10.7428
▁appelee	-10.7436
iere	-10.7459
▁parvenue	-10.7461
▁payee	-10.7474
▁partez	-10.7477
▁mett	-10.749
▁agent	-10.7491
▁chant	-10.7505
▁etonne	-10.751
firent	-10.7524
▁grossiere	-10.7537
▁meilleures	-10.7539
▁pneu	-10.7554
▁proches	-10.7559
▁entendi	-10.7561
▁changements	-10.7572
ales	-10.7588
▁montrerai	-10.759
▁arrivez	-10.7593
▁choisis	-10.7598
particulierement	-10.7607
▁enfui	-10.7608
▁ref	-10.7618
▁medecins	-10.7624
▁quil	-10.7644
▁corriger	-10.7658
▁accro	-10.7658
▁absente	-10.7677
▁lignes	-10.7684
▁rare	-10.7687
▁dernieres	-10.7688
▁affame	-10.7696
▁application	-10.7696
▁bombe	-10.7696
▁comprenne	-10.7696
▁conducteur	-10.7696
▁delicieuse	-10.7696
▁douze	-10.7696
▁egoiste	-10.7696
▁espagne	-10.7696
▁evenement	-10.7696
▁fabrique	-10.7696
▁justice	-10.7696
▁marteau	-10.7696
▁mouchoir	-10.7696
▁objection	-10.7696
▁physique	-10.7696
▁prevenir	-10.7696
▁reservation	-10.7696
▁ridicule	-10.7696
▁ruine	-10.7696
▁traduction	-10.7696
▁vertige	-10.7696
▁cloture	-10.7696
▁miroir	-10.7696
▁tentative	-10.7696
▁baleine	-10.7696
▁meubles	-10.7696
▁degage	-10.7696
▁diable	-10.7696
▁dresse	-10.7696
▁mince	-10.7696
▁centaine	-10.7697
▁intime	-10.7697
▁solaire	-10.7698
▁pleurait	-10.77
▁voter	-10.7702
▁accomplir	-10.771
▁sourit	-10.7715
▁mangea	-10.772
▁sonna	-10.7725
▁attendent	-10.7729
▁har	-10.7747
▁croi	-10.7749
▁ressent	-10.7756
▁baisser	-10.7759
▁pauvres	-10.7781
▁continuez	-10.7783
▁entiere	-10.7789
▁profonde	-10.7798
up	-10.7811
▁paroles	-10.7811
▁danse	-10.7815
▁dispos	-10.7825
▁vain	-10.7833
ho	-10.7836
▁confiant	-10.785
▁amical	-10.785
▁demandai	-10.7871
▁coince	-10.7875
▁repete	-10.7887
▁serve	-10.7899
▁passera	-10.791
▁prisonnier	-10.7914
▁reconnais	-10.7923
▁etude	-10.7926
▁etoile	-10.7926
▁cigarette	-10.7929
ouille	-10.7931
▁rat	-10.7941
▁demissionne	-10.7952
▁nai	-10.7973
▁avise	-10.7984
▁mouille	-10.8002
▁gache	-10.801
▁arretes	-10.8015
▁verse	-10.8016
▁commencez	-10.8033
▁contents	-10.8037
▁adopte	-10.8037
▁eclate	-10.8041
▁persuade	-10.8042
▁americaine	-10.8045
▁explications	-10.8053
▁ponctuel	-10.8055
▁separe	-10.8059
▁favori	-10.8064
▁professionnel	-10.8064
▁concours	-10.8066
▁impatience	-10.8066
▁musicien	-10.8066
▁plafond	-10.8066
▁refrigerateur	-10.8066
▁ressources	-10.8066
▁surprenant	-10.8066
▁millier	-10.8066
▁ordonne	-10.8066
▁source	-10.8066
▁maitrise	-10.8066
▁superieur	-10.8066
▁venait	-10.8066
▁chute	-10.8066
▁distrait	-10.8066
▁gants	-10.8066
▁quasi	-10.8066
▁enverrai	-10.8066
▁souvenez	-10.8066
▁colle	-10.8067
▁vague	-10.8067
▁sympathique	-10.8067
▁disposais	-10.8068
▁dangereuse	-10.8068
▁oh	-10.8069
▁metres	-10.8069
▁voisine	-10.8069
▁prof	-10.8071
▁distinguer	-10.8077
▁habillee	-10.8085
▁tenter	-10.8086
bord	-10.8093
▁chic	-10.8097
▁avantage	-10.8103
ateur	-10.8107
▁bienvenu	-10.8111
▁juger	-10.8119
▁faisaient	-10.812
▁manieres	-10.8125
▁prevenue	-10.8126
▁disais	-10.8128
▁aine	-10.8136
▁jeta	-10.8139
ures	-10.8144
▁fourni	-10.8155
▁recuperer	-10.8161
▁mi	-10.8171
celle	-10.8186
▁vaches	-10.8204
▁etudes	-10.8209
▁profite	-10.8221
▁blagues	-10.8224
▁demenager	-10.8234
▁supplie	-10.8246
▁conten	-10.8251
▁loue	-10.8267
▁souleve	-10.8276
▁acheve	-10.8277
▁signer	-10.8285
▁envisager	-10.8287
▁accidents	-10.8297
▁connue	-10.8298
nde	-10.8298
▁form	-10.8299
▁effort	-10.8311
▁rattraper	-10.8311
illa	-10.8315
▁nul	-10.8338
▁gra	-10.8339
▁gorge	-10.8345
▁tira	-10.8347
▁auto	-10.8351
▁procure	-10.8358
▁suivrai	-10.8363
▁trouvera	-10.8363
▁buf	-10.8364
▁vache	-10.8368
ina	-10.8373
▁commet	-10.8385
capacite	-10.8401
mine	-10.8403
▁prononce	-10.8411
▁passes	-10.8416
▁empire	-10.8426
▁gentils	-10.8429
▁saura	-10.8438
▁sincere	-10.8442
▁enterre	-10.8445
▁univers	-10.845
▁bruyant	-10.8451
▁desaccord	-10.8451
▁domicile	-10.8451
▁fantastique	-10.8451
▁humour	-10.8451
▁issue	-10.8451
▁mystere	-10.8451
▁ombre	-10.8451
▁oublia	-10.8451
▁periode	-10.8451
▁pleuvait	-10.8451
▁remue	-10.8451
▁russe	-10.8451
▁secours	-10.8451
▁guide	-10.8451
▁craint	-10.8451
▁etang	-10.8451
▁niveau	-10.8451
▁gliss	-10.8451
▁aimable	-10.8451
▁encre	-10.8451
▁contraire	-10.8451
▁conclusion	-10.8452
▁diriez	-10.8452
▁ballon	-10.8455
▁acte	-10.8456
▁chanteuse	-10.8456
▁discutons	-10.8458
▁couverture	-10.8461
▁mens	-10.8466
▁tourna	-10.847
▁terriblement	-10.847
▁signification	-10.847
▁ancienne	-10.8471
▁admis	-10.8486
▁reflechis	-10.8496
ara	-10.8509
▁alentours	-10.8509
▁el	-10.8523
▁realiser	-10.8528
niez	-10.8532
▁tracasse	-10.8534
▁adorerais	-10.8544
▁humains	-10.8556
tor	-10.856
▁debutant	-10.8571
▁ramene	-10.8579
▁depasse	-10.8582
▁forcer	-10.8587
▁exprime	-10.8605
▁veille	-10.8608
▁casser	-10.8611
▁satisfaits	-10.8629
▁abri	-10.8639
des	-10.8659
▁rues	-10.8659
▁pardonner	-10.866
▁telephoner	-10.8661
▁offense	-10.8662
▁assiste	-10.8663
▁rouges	-10.8665
eau	-10.8668
ere	-10.8669
ric	-10.8684
▁action	-10.869
▁blessure	-10.8709
▁soutien	-10.8729
▁ainee	-10.8741
▁preterai	-10.8793
▁marcha	-10.8834
▁poule	-10.8839
▁quart	-10.8849
▁decourage	-10.8851
▁interprete	-10.8851
▁observe	-10.8851
▁pleuve	-10.8851
▁tatouage	-10.8851
▁essentiel	-10.8851
▁fraiche	-10.8851
▁levres	-10.8851
▁reduit	-10.8851
▁confronte	-10.8851
▁poete	-10.8851
▁frontiere	-10.8851
▁ambulance	-10.8851
▁meteo	-10.8851
▁debat	-10.8851
▁doux	-10.8851
▁atteigni	-10.8851
▁attente	-10.8852
▁nana	-10.8852
▁peau	-10.8852
▁surprendre	-10.8853
▁foudre	-10.8853
▁examiner	-10.8854
▁courageux	-10.8856
▁singe	-10.8858
▁bol	-10.8859
▁traduit	-10.886
▁villes	-10.8863
▁cd	-10.8869
▁cuire	-10.8874
▁regardait	-10.8882
▁depechez	-10.8898
▁touchez	-10.8926
▁mai	-10.8927
▁panique	-10.8934
▁enfuir	-10.8935
▁salon	-10.894
▁visa	-10.8964
▁fantomes	-10.8964
▁places	-10.8965
▁millions	-10.897
▁conditions	-10.897
▁arranger	-10.8971
▁agisse	-10.8984
▁nue	-10.8986
▁etend	-10.899
▁etudies	-10.8997
▁stupides	-10.9016
▁detestent	-10.9018
▁grimper	-10.9038
▁arretee	-10.9062
▁attire	-10.9063
▁ecrite	-10.9085
▁fe	-10.9106
▁mangeons	-10.911
▁papiers	-10.9121
▁victime	-10.9126
▁passage	-10.9126
▁industrie	-10.9141
▁facons	-10.9142
▁allumer	-10.9151
▁reussira	-10.9154
▁mour	-10.9158
▁obliges	-10.9165
▁polie	-10.9226
ngle	-10.9227
▁roule	-10.9243
▁rang	-10.9261
▁demission	-10.9263
▁micro	-10.9267
▁maitre	-10.9267
▁apercu	-10.9267
▁applaudi	-10.9267
▁arnaque	-10.9267
▁cardiaque	-10.9267
▁curieuse	-10.9267
▁electrique	-10.9267
▁emplettes	-10.9267
▁fauche	-10.9267
▁fuji	-10.9267
▁harvard	-10.9267
▁impoli	-10.9267
▁marchandises	-10.9267
▁pilote	-10.9267
▁qualifie	-10.9267
▁scolaire	-10.9267
▁serrure	-10.9267
▁terrifie	-10.9267
▁ciseaux	-10.9267
▁promit	-10.9267
▁allergique	-10.9267
▁espece	-10.9267
▁gamin	-10.9267
▁jazz	-10.9267
▁valentin	-10.9267
▁langage	-10.9267
▁redige	-10.9267
▁tendit	-10.9268
▁gronde	-10.9268
▁gerant	-10.9268
▁entoure	-10.9268
▁optimiste	-10.9268
▁maigre	-10.9268
▁destination	-10.9269
▁faite	-10.927
▁gren	-10.927
▁assistant	-10.927
▁interrompre	-10.9271
▁suivez	-10.9272
▁naturelle	-10.9275
▁publicite	-10.9276
▁ferez	-10.9282
▁personnellement	-10.9287
▁arrivait	-10.9288
tez	-10.9295
▁ennemis	-10.9296
▁poil	-10.9296
▁volant	-10.9299
▁voient	-10.9303
▁calin	-10.9304
▁descendu	-10.9308
pot	-10.9309
▁traversa	-10.9315
▁serpents	-10.9319
▁fuite	-10.9322
▁habiller	-10.9322
▁delai	-10.9323
▁allumette	-10.933
▁trait	-10.9335
▁depenser	-10.9336
▁attirante	-10.9363
▁remplir	-10.9369
▁jete	-10.9369
▁ajoute	-10.9376
▁appren	-10.9381
ose	-10.9385
▁cotes	-10.9388
onner	-10.9404
▁surprises	-10.9407
▁saisi	-10.9413
▁cri	-10.9423
ph	-10.9428
▁reel	-10.9429
▁allai	-10.9438
▁loup	-10.9438
▁jouent	-10.944
▁voudra	-10.9452
▁gratuit	-10.9453
▁emu	-10.9457
▁supplementaires	-10.9459
▁miens	-10.9465
▁deprimee	-10.9465
▁fan	-10.9493
▁surement	-10.9509
▁reprocher	-10.9513
▁epaules	-10.9527
▁participe	-10.9549
▁etudiantes	-10.955
▁moto	-10.956
▁emploie	-10.9563
iens	-10.9565
▁secrete	-10.9568
▁brillant	-10.9581
▁concentre	-10.9592
▁preparee	-10.9594
▁noire	-10.9599
▁disposee	-10.9606
▁eco	-10.9609
oute	-10.9614
▁devenus	-10.9622
titude	-10.9625
▁sortis	-10.9633
sentait	-10.9635
▁agees	-10.9642
▁arrivees	-10.9644
avaient	-10.9645
▁trouverais	-10.9649
▁noirs	-10.9656
▁appuye	-10.9678
▁reconnue	-10.9678
▁causer	-10.968
ieux	-10.9685
▁eff	-10.9692
▁pleura	-10.9698
▁collection	-10.97
▁trans	-10.9702
▁abattu	-10.9702
▁accent	-10.9702
▁approprie	-10.9702
▁arrache	-10.9702
▁constitue	-10.9702
▁correspond	-10.9702
▁degoutant	-10.9702
▁electronique	-10.9702
▁embrassa	-10.9702
▁enigme	-10.9702
▁envoie	-10.9702
▁expliqua	-10.9702
▁galerie	-10.9702
▁influence	-10.9702
▁innocence	-10.9702
▁navigue	-10.9702
▁origine	-10.9702
▁placard	-10.9702
▁recommanda	-10.9702
▁recrute	-10.9702
▁soigneusement	-10.9702
▁style	-10.9702
▁survivre	-10.9702
▁nettoie	-10.9702
▁plonge	-10.9702
▁ramasse	-10.9702
▁effronte	-10.9702
▁repand	-10.9702
▁batterie	-10.9702
▁bataille	-10.9702
▁joie	-10.9703
▁miel	-10.9703
▁panier	-10.9703
▁furieux	-10.9703
▁clou	-10.9703
▁voisinage	-10.9704
▁poison	-10.9705
▁activite	-10.9705
▁bel	-10.9705
▁severe	-10.9705
▁sauta	-10.9707
▁boutique	-10.9707
▁pretendu	-10.9707
▁croyait	-10.9707
▁saurait	-10.9708
▁camper	-10.9708
▁dorment	-10.9708
▁croient	-10.9712
▁parcourir	-10.9713
▁pige	-10.9713
▁longueur	-10.9715
▁boucle	-10.9717
▁reussite	-10.9718
▁decrire	-10.972
▁revela	-10.9726
▁avere	-10.9727
▁plaisanter	-10.9732
▁moyenne	-10.9738
▁tape	-10.9742
▁vitre	-10.9742
▁plais	-10.9746
oire	-10.9748
▁pull	-10.9748
▁pile	-10.9748
▁croy	-10.9752
▁ours	-10.9752
▁ressemblent	-10.9762
▁etasuniens	-10.9769
▁viendrait	-10.9775
▁divorcer	-10.9777
▁quelconques	-10.9788
▁montagnes	-10.9807
▁adultes	-10.982
▁pressee	-10.9835
▁avancer	-10.9838
▁contracte	-10.9866
▁actions	-10.9866
cation	-10.9868
ites	-10.987
▁verrouillee	-10.988
▁interesses	-10.9894
▁cede	-10.9894
▁determiner	-10.9896
▁cacha	-10.9897
▁appela	-10.9901
der	-10.9902
▁debrouiller	-10.9911
▁plaintes	-10.9931
▁ecouta	-10.9939
▁cultive	-10.9939
▁factures	-10.9941
▁compt	-10.9942
▁foire	-10.9954
▁americains	-10.996
▁finit	-10.9965
▁nation	-10.999
▁paierai	-10.9993
▁dotee	-10.9998
▁promene	-11.0007
▁invitees	-11.0011
ttons	-11.0015
▁lapin	-11.0015
▁penetre	-11.0027
▁boissons	-11.005
▁nourriss	-11.0054
▁folles	-11.0058
▁deviendra	-11.006
▁presents	-11.0065
obe	-11.0069
▁reponds	-11.007
▁secrets	-11.0075
▁voleurs	-11.008
▁debarrasse	-11.0087
▁normale	-11.0121
▁gueri	-11.0123
▁developpe	-11.0132
▁epais	-11.0139
naire	-11.0145
▁pensa	-11.015
▁rapporte	-11.0155
ilometres	-11.0157
▁ambitieux	-11.0157
▁autrefois	-11.0157
▁classique	-11.0157
▁condamne	-11.0157
▁diamant	-11.0157
▁diminue	-11.0157
▁effrayant	-11.0157
▁faineant	-11.0157
▁humide	-11.0157
▁identite	-11.0157
▁melange	-11.0157
▁mouvement	-11.0157
▁perplexe	-11.0157
▁poignee	-11.0157
▁proprietaire	-11.0157
▁siecle	-11.0157
▁autorite	-11.0157
▁pitie	-11.0157
▁sauva	-11.0157
▁natale	-11.0157
▁stop	-11.0157
▁maternelle	-11.0157
▁prepara	-11.0157
▁camera	-11.0157
▁contient	-11.0157
▁coutume	-11.0157
▁empli	-11.0157
▁genoux	-11.0158
▁commerce	-11.0158
▁degote	-11.0158
▁indifferent	-11.0159
▁eclairci	-11.0159
▁collectionne	-11.0159
▁rome	-11.0159
▁candidature	-11.016
▁retourna	-11.0162
▁violent	-11.0162
▁modele	-11.0164
▁texte	-11.0165
▁vive	-11.0173
▁demandes	-11.0174
▁rentra	-11.0198
▁lancer	-11.0202
▁admi	-11.0209
▁ouest	-11.0209
▁trouvais	-11.0233
▁bougies	-11.0233
▁perdi	-11.0234
▁parties	-11.0253
▁approcher	-11.0257
nette	-11.0257
▁sejourner	-11.026
▁manques	-11.0267
▁consacrer	-11.0279
ousse	-11.029
▁forts	-11.0291
▁goutte	-11.0293
▁elegant	-11.0294
▁desert	-11.0294
▁ble	-11.0297
▁rassemble	-11.0313
▁exacte	-11.0314
▁trompes	-11.0322
▁digne	-11.0327
▁reconnaiss	-11.0332
jouons	-11.0339
▁cuisiniere	-11.0343
▁commencai	-11.0359
▁procurer	-11.0361
▁scientifiques	-11.0374
▁soucier	-11.0386
▁souhaiter	-11.0396
▁lois	-11.0414
▁prises	-11.0415
▁termes	-11.0415
▁viendras	-11.0416
▁chinoise	-11.042
▁nourri	-11.0425
don	-11.0429
▁remporte	-11.0433
▁agi	-11.0434
▁responsabilites	-11.0441
▁fachee	-11.0445
▁regretter	-11.0447
▁couter	-11.0449
▁hall	-11.0463
▁fortes	-11.0474
llant	-11.0481
▁condition	-11.049
▁million	-11.0492
▁plaisanterie	-11.0493
▁soldat	-11.0494
▁verres	-11.0498
▁huile	-11.0499
▁sites	-11.0508
▁suivante	-11.0509
▁jus	-11.0509
sses	-11.0516
▁passees	-11.0537
▁depourvue	-11.055
▁necessaires	-11.0552
▁suit	-11.061
▁pic	-11.0622
▁inhabituel	-11.0627
▁espion	-11.0629
▁panneau	-11.0631
▁appare	-11.0632
▁gate	-11.0633
▁accoutume	-11.0633
▁attentif	-11.0633
▁canada	-11.0633
▁collier	-11.0633
▁decouvre	-11.0633
▁espagnol	-11.0633
▁evidemment	-11.0633
▁fermier	-11.0633
▁librairie	-11.0633
▁pelouse	-11.0633
▁pensons	-11.0633
▁petrin	-11.0633
▁petrole	-11.0633
▁pharmacie	-11.0633
▁pistolet	-11.0633
▁politicien	-11.0633
▁position	-11.0633
▁principe	-11.0633
▁reflexion	-11.0633
▁reprendre	-11.0633
▁social	-11.0633
▁televiseur	-11.0633
▁utilite	-11.0633
▁requier	-11.0633
▁deviens	-11.0633
▁reagi	-11.0633
▁poussiere	-11.0633
▁millionnaire	-11.0633
▁region	-11.0633
▁neuve	-11.0633
▁obscurite	-11.0633
▁creuse	-11.0633
▁lanca	-11.0634
▁envoya	-11.0634
▁pattes	-11.0634
▁orient	-11.0635
▁poing	-11.0635
▁cherchait	-11.0635
▁conditionne	-11.0635
▁code	-11.0635
▁piste	-11.0635
▁depit	-11.0636
▁boue	-11.0636
▁naive	-11.0636
▁menu	-11.0637
▁cible	-11.0637
▁trouvons	-11.064
▁negligent	-11.064
▁salut	-11.0641
▁ecriture	-11.0643
▁fermees	-11.0645
▁entrez	-11.065
▁secretaire	-11.0653
sive	-11.0656
atique	-11.0659
▁appuyer	-11.066
▁suiv	-11.0661
▁aboyer	-11.0662
▁impliquee	-11.0664
▁traduis	-11.0664
▁enveloppe	-11.0666
▁gaspiller	-11.0671
▁alite	-11.0678
▁eveillee	-11.068
▁sales	-11.0684
ota	-11.0697
▁maths	-11.0706
▁bonde	-11.0713
▁barre	-11.0718
▁sien	-11.0737
▁detendu	-11.075
▁montez	-11.0778
▁mesures	-11.0786
▁inf	-11.0786
▁croira	-11.0788
▁responsables	-11.0839
▁triche	-11.0863
▁donnee	-11.0883
iront	-11.0909
hu	-11.0919
▁changera	-11.0931
▁magasins	-11.0936
▁frappee	-11.0938
▁amusees	-11.0943
▁partirai	-11.0947
▁essai	-11.0948
▁mignons	-11.0953
▁revele	-11.0966
▁enseignants	-11.0982
▁banane	-11.0991
▁fantome	-11.0992
▁flic	-11.0993
▁remonte	-11.1012
▁privee	-11.102
isme	-11.1024
onc	-11.1055
▁obligees	-11.1068
▁devenues	-11.1071
▁doutes	-11.1079
▁depenses	-11.109
▁economise	-11.1108
▁local	-11.1121
▁legal	-11.1124
▁sejour	-11.1128
▁dettes	-11.113
▁appetit	-11.1133
▁arrose	-11.1133
▁carottes	-11.1133
▁compromis	-11.1133
▁douloureux	-11.1133
▁gentleman	-11.1133
▁humanite	-11.1133
▁incorrect	-11.1133
▁manifeste	-11.1133
▁plastique	-11.1133
▁promettre	-11.1133
▁propriete	-11.1133
▁publique	-11.1133
▁souffrir	-11.1133
▁zone	-11.1133
▁flatte	-11.1133
▁venais	-11.1133
▁impressionnant	-11.1133
▁memorise	-11.1133
▁touristes	-11.1133
▁enfile	-11.1133
▁brievement	-11.1133
▁embarrassant	-11.1133
▁ongles	-11.1133
▁abuse	-11.1133
▁preniez	-11.1133
▁titre	-11.1133
▁repere	-11.1134
▁jumeaux	-11.1134
▁gris	-11.1134
▁gobe	-11.1135
▁respirer	-11.1135
▁alimentaire	-11.1136
crit	-11.1139
▁gratuitement	-11.114
▁descendit	-11.1141
▁pourvu	-11.1141
▁reprises	-11.1144
▁revient	-11.1147
▁jaime	-11.1149
▁appelles	-11.115
▁organisee	-11.1155
▁gratte	-11.1156
▁appelait	-11.116
▁attendit	-11.1161
▁carre	-11.1163
▁specialise	-11.1166
▁cruelle	-11.1167
▁autrement	-11.1189
▁traitement	-11.1189
▁argument	-11.119
▁sauvee	-11.1194
▁nia	-11.1194
▁frequente	-11.1205
traire	-11.1208
▁utilisa	-11.1208
▁capture	-11.1214
fer	-11.1222
▁iras	-11.1222
▁hais	-11.1225
▁compliquee	-11.1239
▁grec	-11.124
▁endroits	-11.1241
▁jouets	-11.1241
▁miennes	-11.1243
▁taire	-11.1244
▁lacet	-11.1246
▁amer	-11.1267
▁seau	-11.1268
uraient	-11.127
▁presenta	-11.127
▁brillante	-11.1274
▁humain	-11.1288
tea	-11.1288
▁poussa	-11.1298
▁distribue	-11.1303
▁parlerai	-11.1318
▁disque	-11.1326
▁rentres	-11.1331
▁speciale	-11.1334
▁libres	-11.1359
▁chargee	-11.1365
▁etein	-11.1382
▁attirer	-11.1385
▁adorai	-11.1387
▁chaises	-11.1388
▁verrouiller	-11.1395
▁chasse	-11.1414
▁marin	-11.1425
▁pardon	-11.1426
▁soul	-11.1427
▁echouer	-11.1432
▁financiere	-11.1442
▁puissant	-11.1468
iser	-11.1482
▁entretien	-11.1493
▁calmes	-11.1495
▁charmant	-11.1497
venu	-11.1502
▁adulte	-11.1518
▁feuille	-11.1528
▁policiers	-11.1545
▁essaierai	-11.1552
▁grosses	-11.1565
▁dun	-11.1586
chant	-11.1596
▁sourd	-11.1614
▁ir	-11.1617
▁confond	-11.1623
▁roc	-11.1625
▁boites	-11.1637
▁soucis	-11.1641
▁telephonerai	-11.1651
yant	-11.1654
▁opera	-11.1658
▁bavard	-11.1659
▁agace	-11.1659
▁alternative	-11.1659
▁attrapa	-11.1659
▁chevre	-11.1659
▁contraint	-11.1659
▁domaine	-11.1659
▁epoux	-11.1659
▁equipage	-11.1659
▁essuy	-11.1659
▁fauteuil	-11.1659
▁inclu	-11.1659
▁individu	-11.1659
▁manipul	-11.1659
▁ordonna	-11.1659
▁papillon	-11.1659
▁personnalite	-11.1659
▁pompier	-11.1659
▁protection	-11.1659
▁prudence	-11.1659
▁raconta	-11.1659
▁reception	-11.1659
▁rythme	-11.1659
▁sceptique	-11.1659
▁telephonique	-11.1659
▁typhon	-11.1659
▁survenir	-11.1659
▁promettez	-11.1659
▁drapeau	-11.1659
▁pouvaient	-11.1659
▁parliez	-11.1659
▁cochon	-11.1659
▁nerfs	-11.1659
▁accueilli	-11.1659
▁partenaire	-11.166
prirent	-11.166
▁photographie	-11.1661
▁faille	-11.1661
▁tentation	-11.1661
▁solide	-11.1662
▁profondeur	-11.1664
▁visiteurs	-11.1664
▁fouille	-11.1666
▁entraineur	-11.1667
▁poursuivi	-11.167
▁resister	-11.1672
▁ponctuelle	-11.1675
▁introduit	-11.1677
▁regardais	-11.1677
▁deposer	-11.1677
▁ange	-11.1682
▁fusil	-11.1682
▁fierte	-11.1682
▁economiser	-11.1685
▁rendiez	-11.1688
aine	-11.1689
▁rejoin	-11.1696
tiers	-11.1702
▁balles	-11.1714
▁deces	-11.1717
▁oreiller	-11.1718
▁confus	-11.1718
▁regardant	-11.1721
▁nettoya	-11.1723
▁version	-11.1725
▁souvenirs	-11.1728
▁grouill	-11.174
lin	-11.1745
ilos	-11.1746
▁camarades	-11.1748
▁concentr	-11.1761
▁habit	-11.1761
▁desirez	-11.1765
▁medecine	-11.178
▁endormis	-11.1791
▁cria	-11.1796
▁adolescents	-11.1797
▁saigne	-11.1801
▁fermement	-11.1802
▁manquent	-11.1808
▁trouverai	-11.181
▁bananes	-11.1811
▁faisant	-11.1812
▁profiter	-11.182
▁embete	-11.1837
▁allumee	-11.184
▁victimes	-11.1842
▁calcule	-11.1856
rice	-11.1858
▁plie	-11.1873
▁documents	-11.1895
alite	-11.1896
▁acheterais	-11.19
▁achever	-11.1904
▁clefs	-11.1905
▁soulever	-11.1905
▁manquez	-11.1906
▁eprouv	-11.1907
▁coo	-11.1924
▁murs	-11.1926
▁conduise	-11.1927
▁soins	-11.1929
▁mentale	-11.1936
ime	-11.1936
▁reveil	-11.1944
▁informer	-11.1946
ry	-11.1948
metre	-11.1956
▁adolescent	-11.1958
▁merit	-11.1977
▁viree	-11.1978
▁joueurs	-11.2005
▁sacs	-11.2009
▁occuperai	-11.2013
▁tiendra	-11.2021
▁calcul	-11.2021
▁devin	-11.2034
▁voies	-11.2038
▁pete	-11.2047
▁limites	-11.2047
▁gosse	-11.2073
▁timbre	-11.2075
▁levee	-11.208
▁vivante	-11.2092
▁rembourse	-11.2098
▁discut	-11.2107
▁moquer	-11.2135
▁capacite	-11.2145
▁decedee	-11.2178
▁songer	-11.218
▁repris	-11.2203
▁surprend	-11.2212
▁fonction	-11.2213
▁malheur	-11.2214
▁absorbe	-11.2215
▁advienne	-11.2215
▁atmosphere	-11.2215
▁avril	-11.2215
▁cauchemar	-11.2215
▁construction	-11.2215
▁defunt	-11.2215
▁empecha	-11.2215
▁enfreint	-11.2215
▁etabli	-11.2215
▁fascinant	-11.2215
▁gym	-11.2215
▁hypothese	-11.2215
▁incident	-11.2215
▁inconscient	-11.2215
▁intimide	-11.2215
▁ministre	-11.2215
▁oignons	-11.2215
▁postale	-11.2215
▁raccourci	-11.2215
▁religion	-11.2215
▁reputation	-11.2215
▁souvient	-11.2215
▁surpoids	-11.2215
▁uniforme	-11.2215
▁zero	-11.2215
▁brave	-11.2215
▁compliment	-11.2215
▁jumelle	-11.2215
▁decevoir	-11.2215
▁chauve	-11.2215
▁esperait	-11.2215
▁largue	-11.2215
▁technique	-11.2215
▁satisfaire	-11.2215
▁flan	-11.2215
▁valable	-11.2215
▁recente	-11.2215
▁egare	-11.2215
▁visible	-11.2215
▁claque	-11.2215
▁economique	-11.2215
▁emission	-11.2215
▁juin	-11.2215
▁trouble	-11.2215
▁malchanceux	-11.2216
▁evoque	-11.2216
▁fixa	-11.2216
▁deguise	-11.2216
▁consideration	-11.2216
▁toucha	-11.2216
▁relache	-11.2217
▁linge	-11.2217
▁cooperer	-11.2217
▁enchante	-11.2217
▁ouverture	-11.222
▁tint	-11.222
▁competition	-11.2221
▁citron	-11.2222
▁travailleurs	-11.2223
▁descendez	-11.2225
▁serveur	-11.2226
▁occup	-11.2232
▁joigne	-11.2232
▁jeunesse	-11.2246
▁gravement	-11.2247
▁entrainement	-11.2248
▁contentes	-11.2252
▁patients	-11.2253
▁outils	-11.226
▁moutons	-11.226
▁entendez	-11.2271
▁changea	-11.2274
▁proceder	-11.2274
▁fourre	-11.228
▁reserver	-11.2284
▁choisiss	-11.2286
▁survivants	-11.23
▁transforme	-11.2316
▁suicider	-11.2324
▁sec	-11.2327
▁comporter	-11.2327
▁meritez	-11.2327
▁demanderai	-11.2328
vaient	-11.2332
▁rembourser	-11.2333
▁irait	-11.2341
▁fondu	-11.2342
▁fu	-11.2347
▁nourris	-11.2351
▁national	-11.2357
▁agis	-11.2379
▁calmer	-11.2388
▁ouvertes	-11.2388
▁rendons	-11.2392
▁dessin	-11.2392
▁bat	-11.2398
▁courus	-11.2399
▁sonner	-11.2404
rouille	-11.2424
▁espoirs	-11.2443
▁objectifs	-11.2483
▁consider	-11.2487
pole	-11.2496
tout	-11.2531
▁prennes	-11.2533
▁expliquerai	-11.2536
▁volontaires	-11.2542
▁coincee	-11.2546
▁chemises	-11.2558
▁restera	-11.2559
▁veiller	-11.2564
▁ressembles	-11.2567
▁embrassee	-11.2568
▁serieuses	-11.2584
▁reflechisse	-11.2591
▁pure	-11.2598
▁suivie	-11.2605
▁ramener	-11.2609
▁offri	-11.2616
▁cousine	-11.2628
▁arriverent	-11.2635
▁secondes	-11.2637
▁rumeurs	-11.2643
▁avertir	-11.2644
▁dessine	-11.2645
▁cuis	-11.2654
▁habiter	-11.2658
▁abeille	-11.266
▁option	-11.2663
▁uf	-11.2664
▁suisse	-11.2676
▁recoi	-11.2689
▁admett	-11.2701
▁presser	-11.2701
▁commercial	-11.2707
▁appreciez	-11.2718
ong	-11.2742
▁franc	-11.2754
▁saisir	-11.2758
▁surveiller	-11.277
▁installe	-11.2778
▁douce	-11.2792
▁examin	-11.2799
▁prince	-11.2802
▁precipita	-11.2802
▁declara	-11.2802
▁usa	-11.2803
phone	-11.2803
▁abasourdi	-11.2803
▁automobile	-11.2803
▁calendrier	-11.2803
▁cerisier	-11.2803
▁chiffre	-11.2803
▁chomage	-11.2803
▁compagnon	-11.2803
▁concernant	-11.2803
▁curiosite	-11.2803
▁defense	-11.2803
▁desoriente	-11.2803
▁domestique	-11.2803
▁dormait	-11.2803
▁emotions	-11.2803
▁epreuve	-11.2803
▁exclu	-11.2803
▁felicite	-11.2803
▁fleche	-11.2803
▁formidable	-11.2803
▁grammaire	-11.2803
▁inattendu	-11.2803
▁instrument	-11.2803
▁necessite	-11.2803
▁original	-11.2803
▁oublions	-11.2803
▁plaire	-11.2803
▁precieux	-11.2803
▁prudemment	-11.2803
▁pyjama	-11.2803
▁record	-11.2803
▁represente	-11.2803
▁retabli	-11.2803
▁silencieuse	-11.2803
▁surface	-11.2803
▁telecharge	-11.2803
▁tranche	-11.2803
▁transpire	-11.2803
▁voulions	-11.2803
▁affreuse	-11.2803
▁disposition	-11.2803
▁deverrouille	-11.2803
▁exigences	-11.2803
▁alloue	-11.2803
▁avoue	-11.2803
▁discret	-11.2803
▁aventure	-11.2803
▁envole	-11.2803
▁advenu	-11.2803
▁peuple	-11.2803
▁porc	-11.2803
▁sauce	-11.2803
▁tigre	-11.2803
▁emmenage	-11.2803
▁venons	-11.2803
▁temple	-11.2803
▁inspiration	-11.2803
▁remarquable	-11.2803
▁ingenieur	-11.2803
▁couvre	-11.2803
▁paresseuse	-11.2803
▁connaissiez	-11.2804
▁aidiez	-11.2804
cycl	-11.2804
▁renard	-11.2804
▁existence	-11.2804
▁rompre	-11.2805
▁meurent	-11.2805
▁mineur	-11.2805
▁craindre	-11.2805
▁allergie	-11.2805
▁citoyen	-11.2805
▁etonnant	-11.2806
▁seiz	-11.2806
▁enferme	-11.2808
voque	-11.2808
▁morceaux	-11.2809
▁recommencer	-11.281
▁apprenne	-11.281
▁pauvrete	-11.2815
▁normalement	-11.2817
▁enterrement	-11.2817
▁menage	-11.282
▁acceptable	-11.2821
▁feront	-11.2822
▁appuie	-11.2823
▁mentent	-11.2829
▁interessees	-11.2831
▁pag	-11.2832
▁rouler	-11.2838
▁emb	-11.2842
▁latin	-11.2842
▁conduisez	-11.2846
▁apprendrai	-11.2849
▁elephants	-11.2895
▁entendues	-11.2901
▁parcouru	-11.2902
▁salue	-11.291
▁principal	-11.2928
arg	-11.2934
▁pratiquer	-11.2934
▁exigea	-11.2938
▁habits	-11.2957
▁majeure	-11.2967
▁blonde	-11.297
▁saurais	-11.2976
▁changent	-11.298
▁tranquilles	-11.2994
▁gras	-11.3011
▁blessures	-11.3018
▁tricote	-11.3023
▁gagnera	-11.3061
issant	-11.3066
▁humaine	-11.3068
▁tri	-11.3074
▁offensee	-11.3074
▁rencontra	-11.3081
lli	-11.3089
▁parvenus	-11.3106
▁oranges	-11.3106
▁particuliere	-11.3113
▁accepta	-11.3116
▁crea	-11.3126
▁sembl	-11.3162
▁satisfaites	-11.3163
▁magazines	-11.3169
▁geniale	-11.3173
▁saoule	-11.3175
▁plats	-11.321
onnerent	-11.3213
▁precipite	-11.3224
▁joua	-11.3241
▁serrer	-11.3244
▁deserte	-11.3246
▁dingues	-11.3249
▁viendrais	-11.3252
▁environnement	-11.3264
▁attirant	-11.3285
ives	-11.3307
▁elevee	-11.3312
▁fall	-11.3324
▁deplace	-11.3325
▁arriverai	-11.3343
▁engager	-11.3344
irez	-11.336
▁lise	-11.3362
▁porta	-11.3379
▁augmenter	-11.3399
▁crayons	-11.3412
▁fonds	-11.3416
▁differe	-11.3416
▁realisa	-11.3425
▁rideau	-11.3426
▁accusa	-11.3427
▁remarqua	-11.3428
▁compens	-11.3428
▁actif	-11.3428
▁affirme	-11.3428
▁alice	-11.3428
▁britannique	-11.3428
▁budget	-11.3428
▁complexe	-11.3428
▁decevant	-11.3428
▁detective	-11.3428
▁echappa	-11.3428
▁echelle	-11.3428
▁endommage	-11.3428
▁equilibre	-11.3428
▁frites	-11.3428
▁genereux	-11.3428
▁habile	-11.3428
▁imprudent	-11.3428
▁incompetent	-11.3428
▁inevitable	-11.3428
▁intrigue	-11.3428
▁joyeux	-11.3428
▁justifie	-11.3428
▁manifestation	-11.3428
▁nucleaire	-11.3428
▁orthographe	-11.3428
▁passionnant	-11.3428
▁phares	-11.3428
▁pollution	-11.3428
▁probabilite	-11.3428
▁proverbe	-11.3428
▁raquette	-11.3428
▁recompense	-11.3428
▁refroidi	-11.3428
▁restons	-11.3428
▁shirt	-11.3428
▁soutenu	-11.3428
▁talentueux	-11.3428
▁trempe	-11.3428
▁alphabet	-11.3428
▁aujourdhui	-11.3428
▁bouchon	-11.3428
▁romantique	-11.3428
▁taquine	-11.3428
▁desastre	-11.3428
▁epee	-11.3428
▁inquietude	-11.3428
▁ouvriers	-11.3428
▁amende	-11.3428
▁degoute	-11.3428
▁travaillais	-11.3428
▁terrain	-11.3428
▁natation	-11.3428
▁integr	-11.3428
▁dossier	-11.3428
▁grenouille	-11.3428
▁ideal	-11.3429
▁rejoindra	-11.3429
▁provenan	-11.3429
▁chauffage	-11.3429
▁accusation	-11.3429
▁soupconne	-11.3429
gramme	-11.3429
▁princesse	-11.3429
▁poursuivre	-11.343
▁reconnaitre	-11.343
▁rencontriez	-11.343
▁concu	-11.3431
▁troupe	-11.3432
▁merde	-11.3432
▁independant	-11.3433
▁imbecile	-11.3433
▁conduirai	-11.3433
▁ecrivit	-11.3434
▁ranger	-11.3434
▁cerf	-11.3436
▁metier	-11.3436
▁scie	-11.3438
▁motive	-11.3439
▁luxe	-11.3439
▁sincerement	-11.3443
▁gateaux	-11.3445
▁mentez	-11.3446
▁enfuit	-11.3451
▁chaine	-11.3453
▁restait	-11.3453
▁epuisee	-11.3456
▁pardonnerai	-11.3459
▁disputent	-11.346
▁strict	-11.3462
▁attribue	-11.3467
▁confondu	-11.3472
▁jeans	-11.3478
voir	-11.3483
▁hesit	-11.3484
venez	-11.3484
▁interrompu	-11.3488
▁fortement	-11.3499
▁maux	-11.3502
erv	-11.3506
tenez	-11.3509
▁trahie	-11.3518
▁inscrit	-11.3523
▁pan	-11.3523
▁monta	-11.3527
▁sers	-11.3538
▁bruler	-11.3539
▁finiss	-11.3547
▁defauts	-11.3563
▁remarquer	-11.3588
▁destinee	-11.3594
▁volee	-11.3595
▁lapins	-11.3629
▁mises	-11.364
ib	-11.3667
▁bienvenus	-11.3672
▁cigarettes	-11.3676
▁pneus	-11.3685
▁ecarte	-11.3707
atif	-11.3714
▁apprete	-11.3732
▁ouvri	-11.374
▁lot	-11.3742
▁disponibles	-11.3752
nerie	-11.3753
▁excitee	-11.3754
▁reti	-11.3756
rche	-11.3759
▁regardent	-11.3775
▁couler	-11.3807
▁crue	-11.381
▁complete	-11.383
▁use	-11.3839
▁poi	-11.3842
▁lien	-11.3842
▁quest	-11.3888
▁elegante	-11.3895
▁majeur	-11.3911
▁vivants	-11.393
▁bl	-11.3935
▁ouvr	-11.3939
▁defaut	-11.3952
▁hurle	-11.3953
▁dollar	-11.3956
▁manqu	-11.3957
▁chanta	-11.3959
▁ec	-11.3962
▁commander	-11.3966
▁dirigea	-11.3974
▁revenue	-11.3983
▁frott	-11.4004
▁cite	-11.4016
ssions	-11.4038
▁aiderait	-11.4038
▁partiez	-11.4047
joint	-11.4048
bri	-11.406
▁ralenti	-11.4071
▁considerer	-11.4077
▁acces	-11.4078
aissait	-11.4084
pension	-11.4094
▁accueil	-11.4094
▁exces	-11.4095
▁alluma	-11.4095
▁approcha	-11.4095
▁appuya	-11.4095
▁baignoire	-11.4095
▁biologi	-11.4095
▁chicago	-11.4095
▁compassion	-11.4095
▁competence	-11.4095
▁competent	-11.4095
▁dauphin	-11.4095
▁declenche	-11.4095
▁embouteillage	-11.4095
▁enceinte	-11.4095
▁enthousiasme	-11.4095
▁epousa	-11.4095
▁exhort	-11.4095
▁fiancailles	-11.4095
▁frequemment	-11.4095
▁frigo	-11.4095
▁indice	-11.4095
▁interroge	-11.4095
▁lincoln	-11.4095
▁litterature	-11.4095
▁maladroit	-11.4095
▁muscle	-11.4095
▁obligation	-11.4095
▁pianiste	-11.4095
▁prononciation	-11.4095
▁recouvert	-11.4095
▁robot	-11.4095
▁souvienne	-11.4095
▁suggera	-11.4095
▁viendrez	-11.4095
▁volontiers	-11.4095
▁apparait	-11.4095
▁chiot	-11.4095
▁embarque	-11.4095
▁erige	-11.4095
▁fidele	-11.4095
▁hamburger	-11.4095
▁imaginais	-11.4095
▁selfie	-11.4095
▁solitaire	-11.4095
▁isole	-11.4095
▁sanglot	-11.4095
▁cramp	-11.4095
▁epele	-11.4095
▁croissance	-11.4095
▁modeste	-11.4095
▁avale	-11.4095
▁balade	-11.4096
▁greve	-11.4096
▁vieilliss	-11.4096
▁cooperation	-11.4096
▁plombier	-11.4096
▁tomates	-11.4096
▁coudre	-11.4096
▁ennuyeuse	-11.4096
▁pince	-11.4096
▁brun	-11.4097
▁fric	-11.4097
▁college	-11.4097
ham	-11.4097
▁abonne	-11.4097
▁herit	-11.4097
▁precedent	-11.4097
▁bordel	-11.4098
▁cambrioleur	-11.4098
▁portail	-11.4098
▁referai	-11.4099
▁raisin	-11.41
▁traitre	-11.4101
▁reveilla	-11.4101
▁orage	-11.4102
percevoir	-11.4102
stru	-11.4102
▁surmonter	-11.4104
▁jeudi	-11.4104
▁colon	-11.4106
▁tetu	-11.4106
llo	-11.4107
▁arretiez	-11.4107
▁casquette	-11.411
▁tradition	-11.411
▁statue	-11.4112
▁planche	-11.4113
▁serviable	-11.4113
▁marchant	-11.4114
▁maligne	-11.4114
▁reine	-11.4114
▁confirmer	-11.4115
▁epaisse	-11.4121
▁attendra	-11.4132
▁signa	-11.4138
▁suspendu	-11.4139
▁richesse	-11.4141
▁seisme	-11.4143
▁guerir	-11.4145
▁regardons	-11.4148
tendimes	-11.4148
▁consequences	-11.4159
▁sensation	-11.4168
▁moustiques	-11.4169
▁semblables	-11.418
▁choisit	-11.418
▁attendue	-11.4187
▁crainte	-11.4189
▁deplacer	-11.4195
▁racontez	-11.4198
▁commerciale	-11.4205
▁assassine	-11.4208
▁coupa	-11.4215
cule	-11.4216
▁sali	-11.4224
▁gre	-11.4237
▁doive	-11.4242
▁cro	-11.4243
▁partes	-11.425
▁jouet	-11.4251
▁noue	-11.4255
▁souciez	-11.4263
▁serra	-11.4265
▁communiqu	-11.4268
▁capacites	-11.4269
▁tenai	-11.4281
▁plaisanteries	-11.43
▁pend	-11.4314
▁tuyau	-11.4317
▁soutiens	-11.434
▁recherch	-11.4353
▁saluer	-11.4365
▁rattrape	-11.4397
▁mechante	-11.4409
▁exercer	-11.442
▁relations	-11.4421
▁canadiens	-11.4432
▁trainer	-11.4434
▁partent	-11.4439
▁anciens	-11.4443
▁serviettes	-11.4462
▁laissees	-11.4469
tiennent	-11.4472
▁gratuite	-11.4484
▁rougi	-11.4491
▁manquera	-11.4495
▁asie	-11.4518
▁escalade	-11.4526
▁peinte	-11.4536
time	-11.4541
bra	-11.4543
▁impuissant	-11.4548
▁ecoutee	-11.4562
▁saisis	-11.4596
▁essayerai	-11.4639
▁savon	-11.467
▁gro	-11.4684
▁passerai	-11.4715
plaisant	-11.4731
▁changerai	-11.4737
▁gacher	-11.4741
courir	-11.4743
▁stricte	-11.477
sible	-11.4781
▁separer	-11.4784
▁depose	-11.4785
▁neglige	-11.4797
▁reproduir	-11.4798
▁vegetarien	-11.4801
▁coiffe	-11.4804
▁trembl	-11.4806
▁genou	-11.4807
▁immediat	-11.4808
▁investi	-11.4809
▁etatsunien	-11.4809
▁plaque	-11.4809
▁scandale	-11.4809
▁adapter	-11.4809
▁agressif	-11.4809
▁ampoule	-11.4809
▁apprecions	-11.4809
▁architecte	-11.4809
▁arrivons	-11.4809
▁athlet	-11.4809
▁automatique	-11.4809
▁bagnole	-11.4809
▁benevol	-11.4809
▁cinquieme	-11.4809
▁decroche	-11.4809
▁degats	-11.4809
▁ecureuil	-11.4809
▁envahi	-11.4809
▁equitable	-11.4809
▁excursion	-11.4809
▁exemplaire	-11.4809
▁exposition	-11.4809
▁extraordinaire	-11.4809
▁flamme	-11.4809
▁flexible	-11.4809
▁foyer	-11.4809
▁humilie	-11.4809
▁hypnotise	-11.4809
▁indigne	-11.4809
▁informatique	-11.4809
▁insense	-11.4809
▁marron	-11.4809
▁modifie	-11.4809
▁officier	-11.4809
▁olympiques	-11.4809
▁pacifique	-11.4809
▁pilule	-11.4809
▁siffler	-11.4809
▁veinard	-11.4809
▁victoire	-11.4809
▁acquis	-11.4809
▁carriere	-11.4809
▁constate	-11.4809
▁mandat	-11.4809
▁parfum	-11.4809
▁redire	-11.4809
▁relativ	-11.4809
▁drague	-11.4809
▁voyiez	-11.4809
▁materiel	-11.4809
▁expire	-11.4809
▁menageres	-11.4809
▁defaite	-11.4809
▁promu	-11.4809
▁circule	-11.4809
▁labeur	-11.4809
▁repousse	-11.4809
▁devenait	-11.4809
▁pensions	-11.481
▁huitres	-11.481
▁retenti	-11.481
▁parlaient	-11.481
▁torche	-11.481
▁comptable	-11.4811
▁expression	-11.4811
▁organisation	-11.4811
▁avera	-11.4811
▁volume	-11.4812
▁querelle	-11.4812
▁ressemblait	-11.4812
▁brille	-11.4812
▁gardien	-11.4812
▁courageuse	-11.4812
▁respiration	-11.4812
▁trembler	-11.4812
▁peril	-11.4813
▁miles	-11.4813
▁detestait	-11.4813
▁coiffeur	-11.4814
▁grippe	-11.4815
▁specialite	-11.4815
▁taxe	-11.4816
▁revenez	-11.4817
▁trouvaient	-11.4817
▁absurde	-11.4817
▁marchait	-11.4818
▁bio	-11.4819
▁doucement	-11.482
▁faillite	-11.4822
▁paraitre	-11.4823
▁attendiez	-11.4825
▁gla	-11.4827
▁negocier	-11.4827
▁grotte	-11.4829
▁servent	-11.4832
▁degres	-11.4832
▁attendant	-11.4833
▁paysage	-11.4834
▁dessiner	-11.4844
▁revue	-11.4844
▁peigne	-11.4844
▁fumeur	-11.4845
▁taper	-11.4851
▁medicale	-11.4851
▁feux	-11.4852
▁empirer	-11.4856
▁insectes	-11.4857
▁otages	-11.4868
▁protege	-11.4871
▁grain	-11.4873
▁crut	-11.4876
▁virent	-11.4877
nellement	-11.4879
▁priorites	-11.4879
▁rencontr	-11.4886
▁perdant	-11.4887
▁balai	-11.4888
▁demandait	-11.4893
▁chirurgien	-11.4893
oses	-11.4898
▁araignees	-11.49
▁saine	-11.4911
▁recherchent	-11.4913
▁cherchent	-11.4938
▁comprendrais	-11.4939
▁maria	-11.4945
▁yen	-11.4962
▁ressemblez	-11.4976
▁inquietez	-11.4986
▁noter	-11.4986
▁abeilles	-11.4987
▁gach	-11.4992
▁gaucher	-11.4992
▁annoncer	-11.4995
▁tarder	-11.4997
▁gosses	-11.4998
▁temoigne	-11.5003
▁finira	-11.5006
▁vision	-11.5024
▁prouve	-11.5035
▁aimera	-11.5059
▁tiendrai	-11.508
▁danseur	-11.5092
▁transporte	-11.5092
▁puissante	-11.5105
▁glacee	-11.5126
▁perce	-11.5128
▁emballe	-11.5181
▁lyceen	-11.5188
▁verte	-11.5228
▁reverrai	-11.5257
▁comprise	-11.5261
▁portai	-11.5267
▁amusante	-11.5272
▁desesperee	-11.5279
▁antiqu	-11.5314
▁gel	-11.5333
▁destine	-11.5341
▁combatt	-11.5352
▁lavee	-11.5362
▁plut	-11.5369
▁detendue	-11.539
▁accusee	-11.541
▁divise	-11.5412
▁vet	-11.5431
▁escalier	-11.5438
▁chaussure	-11.544
▁echanger	-11.5448
▁arretees	-11.5459
▁suppos	-11.5467
ouf	-11.5472
▁briser	-11.5509
▁arrivai	-11.5513
▁sacre	-11.5519
▁extra	-11.5532
▁garanti	-11.5533
▁cuir	-11.5535
▁regrett	-11.5545
▁remplace	-11.5553
▁blame	-11.5554
▁ignora	-11.5559
▁appartien	-11.5561
▁ferie	-11.5569
▁attentive	-11.5569
fort	-11.5572
▁cambriole	-11.5575
boo	-11.5575
▁rafraichi	-11.5576
▁chausse	-11.5578
▁affreux	-11.5578
▁apparten	-11.5578
▁atroce	-11.5578
▁colomb	-11.5578
▁compatis	-11.5578
▁compreniez	-11.5578
▁confectionna	-11.5578
▁connecte	-11.5578
▁credule	-11.5578
▁definitive	-11.5578
▁desagreable	-11.5578
▁devisage	-11.5578
▁disparaitre	-11.5578
▁echantillon	-11.5578
▁echarpe	-11.5578
▁effectivement	-11.5578
▁empreinte	-11.5578
▁esperant	-11.5578
▁extirpe	-11.5578
▁furieuse	-11.5578
▁genereuse	-11.5578
▁gentiment	-11.5578
▁intimite	-11.5578
▁majorite	-11.5578
▁mercredi	-11.5578
▁munitions	-11.5578
▁oxygene	-11.5578
▁placa	-11.5578
▁poivre	-11.5578
▁postule	-11.5578
▁precieuse	-11.5578
▁promotion	-11.5578
▁randonnee	-11.5578
▁realiste	-11.5578
▁robinet	-11.5578
▁septembre	-11.5578
▁souffert	-11.5578
▁souffla	-11.5578
▁sournois	-11.5578
▁talentueuse	-11.5578
▁toubib	-11.5578
▁embetant	-11.5578
▁expulse	-11.5578
▁insista	-11.5578
▁satisfaisant	-11.5578
▁detenu	-11.5578
▁onereux	-11.5578
▁prenant	-11.5578
▁fourmis	-11.5578
▁eteignit	-11.5578
▁medaille	-11.5578
▁survenait	-11.5578
gourdi	-11.5578
▁aneanti	-11.5578
▁secoue	-11.5578
▁sanguin	-11.5578
▁renonce	-11.5578
▁cahier	-11.5578
▁retournons	-11.5578
▁distributeur	-11.5578
▁sucreries	-11.5578
▁depouille	-11.5578
▁stade	-11.5578
▁bonbons	-11.5578
▁proces	-11.5578
▁cerveau	-11.5579
▁dechire	-11.5579
▁bloque	-11.5579
▁dressa	-11.5579
▁etape	-11.5579
▁pendule	-11.5579
▁consiste	-11.5579
▁ignorance	-11.5579
▁production	-11.5579
▁inspire	-11.5579
▁vivaient	-11.5579
▁arabe	-11.5579
▁adieux	-11.5579
▁ruse	-11.5579
▁bottes	-11.558
▁serviteur	-11.558
▁aiguise	-11.558
▁consommation	-11.558
▁detestais	-11.558
▁achat	-11.558
▁acide	-11.558
▁balance	-11.558
▁maitresse	-11.5581
▁roue	-11.5581
▁courtois	-11.5581
▁desobei	-11.5582
▁possedait	-11.5583
▁totalite	-11.5585
▁provi	-11.5585
▁mordre	-11.5586
▁procede	-11.5586
▁regretteras	-11.5586
▁habitait	-11.5586
▁sueur	-11.5586
stoc	-11.5589
▁disposait	-11.559
▁attendaient	-11.5591
▁recev	-11.5596
▁impos	-11.5597
▁ventre	-11.5598
▁voyant	-11.5598
▁front	-11.56
▁remplacer	-11.5603
▁separees	-11.5604
▁poliment	-11.5605
▁ralentir	-11.5607
▁circonstances	-11.5607
▁montee	-11.5608
▁voile	-11.5608
▁debarrass	-11.5611
▁installer	-11.5611
▁toux	-11.5611
bouffe	-11.5619
▁orteils	-11.5619
▁jugement	-11.562
▁interesserait	-11.5623
▁garantie	-11.5624
tends	-11.563
▁renommee	-11.5643
▁nageur	-11.5648
ama	-11.566
mbarde	-11.5663
▁clin	-11.5666
▁endormit	-11.5672
▁neigera	-11.5674
▁reuni	-11.5676
▁meritent	-11.5679
▁ronde	-11.5682
▁decolle	-11.5685
igue	-11.5686
▁permettrai	-11.5687
alise	-11.5692
mettiez	-11.5711
▁suggerer	-11.5718
▁trompette	-11.5731
▁generale	-11.5735
▁passager	-11.5749
▁questionne	-11.5755
▁verrouill	-11.5758
▁etroite	-11.578
▁imprime	-11.5781
▁meurs	-11.5795
vait	-11.5802
▁chienne	-11.5817
▁charmante	-11.5823
▁varie	-11.5831
▁rapproche	-11.5834
arine	-11.5861
▁reveler	-11.5887
▁raccroche	-11.5915
▁reparee	-11.5934
llement	-11.5942
▁ecoutai	-11.5942
▁salu	-11.5963
▁reven	-11.5987
▁suppli	-11.6009
▁recommander	-11.6014
▁go	-11.6021
▁cree	-11.605
▁confiante	-11.6052
▁amicale	-11.6052
ria	-11.6059
rain	-11.6085
▁ressentir	-11.6112
▁torture	-11.6115
▁fonctionnera	-11.6132
▁embarrassee	-11.6133
▁proposer	-11.6155
▁vola	-11.6163
▁consciente	-11.6166
▁diplomee	-11.6166
gle	-11.6171
▁amere	-11.6201
▁proteste	-11.6221
▁enlever	-11.6225
▁efforce	-11.623
▁suspecte	-11.6248
▁gard	-11.626
▁camarade	-11.627
▁bougie	-11.627
▁emprunt	-11.6271
eint	-11.6284
▁decoller	-11.6324
▁buvai	-11.6326
▁parven	-11.6334
▁rappel	-11.6357
tache	-11.6372
▁stress	-11.6375
▁confirme	-11.6387
▁distingue	-11.6387
▁ecrive	-11.6393
▁italien	-11.6404
▁rigole	-11.6404
▁patin	-11.6406
▁produira	-11.6407
cession	-11.6407
▁jumeau	-11.641
imagin	-11.641
▁deshabill	-11.6412
▁milliard	-11.6412
▁advenir	-11.6412
▁ambitieuse	-11.6412
▁apparition	-11.6412
▁arrogant	-11.6412
▁aspirine	-11.6412
▁attacha	-11.6412
▁attaqua	-11.6412
▁balaye	-11.6412
▁cadavre	-11.6412
▁champagne	-11.6412
▁charbon	-11.6412
▁cherchiez	-11.6412
▁cicatrice	-11.6412
▁convenable	-11.6412
▁cueilli	-11.6412
▁dentifrice	-11.6412
▁epouvantable	-11.6412
▁extraverti	-11.6412
▁falaise	-11.6412
▁fourrure	-11.6412
▁guitariste	-11.6412
▁horrifie	-11.6412
▁identifie	-11.6412
▁impitoyable	-11.6412
▁imprimante	-11.6412
▁infecte	-11.6412
▁insinue	-11.6412
▁intelligence	-11.6412
▁janvier	-11.6412
▁mecanicien	-11.6412
▁menaca	-11.6412
▁meurtrier	-11.6412
▁moururent	-11.6412
▁observa	-11.6412
▁obtiens	-11.6412
▁pourparlers	-11.6412
▁prevenant	-11.6412
▁productif	-11.6412
▁raffine	-11.6412
▁rampe	-11.6412
▁ridiculise	-11.6412
▁russie	-11.6412
▁saxophone	-11.6412
▁soupir	-11.6412
▁soutenir	-11.6412
▁subven	-11.6412
▁survivra	-11.6412
▁technologie	-11.6412
▁temporaire	-11.6412
▁truite	-11.6412
▁universitaire	-11.6412
▁bourse	-11.6412
▁participa	-11.6412
▁grille	-11.6412
▁guise	-11.6412
▁viendriez	-11.6412
▁desordre	-11.6412
▁devoue	-11.6412
▁nausee	-11.6412
▁pouls	-11.6412
▁veine	-11.6412
▁administrat	-11.6412
▁tension	-11.6412
▁collegue	-11.6412
▁hantee	-11.6412
▁mexique	-11.6412
▁detaillee	-11.6412
▁entraider	-11.6412
▁crache	-11.6412
▁lustre	-11.6412
▁inventa	-11.6412
▁absten	-11.6412
▁saumon	-11.6412
▁puissance	-11.6412
tient	-11.6412
▁denue	-11.6412
▁clarifier	-11.6413
▁alimentation	-11.6413
▁baguettes	-11.6413
▁facteur	-11.6413
▁accrocha	-11.6413
▁preserve	-11.6413
▁rideaux	-11.6414
▁rappele	-11.6414
▁baton	-11.6415
▁commission	-11.6415
▁douceur	-11.6415
▁souviendrai	-11.6415
▁potable	-11.6415
▁puits	-11.6415
▁bonhomme	-11.6416
▁ignorait	-11.6417
▁combattre	-11.6417
▁patiner	-11.6418
▁continuons	-11.6419
▁executer	-11.6419
▁logement	-11.6419
▁parviendra	-11.642
▁espionne	-11.642
▁ambassade	-11.6423
▁reproduira	-11.6425
▁manuelle	-11.6426
▁alibi	-11.6427
▁metal	-11.643
▁baigner	-11.6432
igueur	-11.6435
▁anti	-11.6437
▁rigoler	-11.6438
▁trousse	-11.6439
▁fris	-11.6439
▁comprendriez	-11.6443
▁enormement	-11.6444
▁fiancee	-11.6449
▁perdons	-11.6451
▁tricher	-11.6455
▁couteux	-11.6457
▁plaisantez	-11.6459
ury	-11.6464
▁casque	-11.6471
▁jetons	-11.6476
▁adopter	-11.6479
▁internationale	-11.6483
▁manquant	-11.6483
▁honnetement	-11.6496
▁loua	-11.6499
▁pretre	-11.6499
▁approchez	-11.6507
▁suivit	-11.6509
ative	-11.6515
▁justesse	-11.6528
▁sacree	-11.6533
▁respir	-11.6534
corp	-11.6546
▁impressionner	-11.6551
▁parvin	-11.6552
▁tuees	-11.6552
▁effrayer	-11.6554
▁vivrai	-11.6556
▁delicate	-11.6558
▁annulee	-11.6567
▁recit	-11.6571
▁fournit	-11.6581
▁couverte	-11.6594
battit	-11.6612
▁sentira	-11.6623
▁canne	-11.6625
▁gorgee	-11.6649
▁donnera	-11.6654
▁mouillee	-11.6655
▁rechauffer	-11.6661
▁contribuer	-11.6665
ilo	-11.6676
roc	-11.6678
▁precipiter	-11.6693
▁eloignee	-11.6742
▁escalader	-11.6755
▁financier	-11.6771
▁soum	-11.6811
▁remporter	-11.6818
▁verifi	-11.6823
▁detourne	-11.6827
▁mourra	-11.6851
▁pressa	-11.688
▁marrante	-11.6904
▁reproduise	-11.6944
▁trouvai	-11.6944
▁plier	-11.6958
▁peser	-11.6959
▁creer	-11.6982
▁garda	-11.6995
▁rempliss	-11.6999
▁bail	-11.7005
▁rassembl	-11.7008
▁remett	-11.7015
▁bati	-11.7035
▁tuerai	-11.7035
▁ador	-11.7067
▁contribue	-11.7089
▁retrouv	-11.7109
▁apprecia	-11.7115
▁rechauffe	-11.7141
▁detest	-11.7142
▁etasunien	-11.7167
▁elephant	-11.7179
▁alentour	-11.718
▁math	-11.718
▁survivant	-11.7181
▁biscuit	-11.7181
▁parvienne	-11.7182
▁apparu	-11.719
▁devrai	-11.7198
pie	-11.7205
▁deviendrai	-11.7214
▁revu	-11.7276
▁dorme	-11.731
▁viole	-11.731
▁quotidienne	-11.7314
▁buche	-11.7315
▁bresil	-11.7317
▁actuel	-11.7317
graphie	-11.7318
▁defend	-11.7318
▁plomb	-11.7319
nombr	-11.7319
▁invita	-11.732
▁regulier	-11.732
▁delibere	-11.7321
▁chuchote	-11.7321
▁immobilier	-11.7321
▁indiqua	-11.7321
▁instinct	-11.7321
▁insupportable	-11.7321
▁mobilier	-11.7321
▁rassasie	-11.7321
▁reessayer	-11.7321
▁sorcier	-11.7321
▁spontane	-11.7321
▁urbain	-11.7321
comprehensible	-11.7321
▁agriculteur	-11.7321
▁armoire	-11.7321
▁associ	-11.7321
▁astronomie	-11.7321
▁avertissement	-11.7321
▁barriere	-11.7321
▁bazar	-11.7321
▁bracelet	-11.7321
▁bulletin	-11.7321
▁californie	-11.7321
▁caractere	-11.7321
▁carbone	-11.7321
▁catholique	-11.7321
▁cheville	-11.7321
▁compositeur	-11.7321
▁conflit	-11.7321
▁demandons	-11.7321
▁depechons	-11.7321
▁eduque	-11.7321
▁farce	-11.7321
▁fusillade	-11.7321
▁horizon	-11.7321
▁immense	-11.7321
▁immobile	-11.7321
▁invention	-11.7321
▁investissement	-11.7321
▁irresponsable	-11.7321
▁lendemain	-11.7321
▁logiciel	-11.7321
▁moustache	-11.7321
▁orphelin	-11.7321
▁ovni	-11.7321
▁philosophie	-11.7321
▁plaira	-11.7321
▁pluvieux	-11.7321
▁poitrine	-11.7321
▁rationnel	-11.7321
▁religieux	-11.7321
▁remarie	-11.7321
▁requerir	-11.7321
▁ressort	-11.7321
▁revolution	-11.7321
▁rugby	-11.7321
▁seduisant	-11.7321
▁spatia	-11.7321
▁susceptible	-11.7321
▁tabac	-11.7321
▁telecommande	-11.7321
▁trouviez	-11.7321
descripti	-11.7321
▁cendres	-11.7321
▁decharge	-11.7321
▁euros	-11.7321
▁mecontent	-11.7321
▁reaction	-11.7321
▁recouvr	-11.7321
▁tissu	-11.7321
▁volcan	-11.7321
▁aboli	-11.7321
▁europeenne	-11.7321
▁rude	-11.7321
▁negative	-11.7321
▁pourboire	-11.7321
▁vaincre	-11.7321
▁militaire	-11.7321
▁soigne	-11.7321
▁cogne	-11.7321
▁anneau	-11.7321
▁massage	-11.7321
▁voyait	-11.7321
▁averse	-11.7321
▁previen	-11.7321
▁clique	-11.7321
▁generation	-11.7321
▁foutu	-11.7321
▁tortues	-11.7321
▁obtient	-11.7321
▁venge	-11.7321
▁vivais	-11.7321
▁surmene	-11.7321
▁pueril	-11.7321
▁raide	-11.7321
▁demode	-11.7321
▁communaute	-11.7321
▁differemment	-11.7321
▁reparation	-11.7321
▁souligne	-11.7321
▁job	-11.7321
▁regulierement	-11.7321
▁bouillir	-11.7322
▁aimiez	-11.7322
▁bible	-11.7322
▁photographe	-11.7322
▁procedure	-11.7322
▁sidere	-11.7322
▁apeure	-11.7322
▁orateur	-11.7323
▁serveuse	-11.7323
▁sied	-11.7323
▁posons	-11.7323
▁sejourna	-11.7324
▁campus	-11.7324
▁irre	-11.7324
▁verrons	-11.7325
▁confier	-11.7325
joigni	-11.7326
▁sagesse	-11.7326
▁rangee	-11.7327
▁pelle	-11.7327
▁vendeur	-11.7328
▁pali	-11.7328
▁jules	-11.7328
▁portrait	-11.733
▁cool	-11.7331
poc	-11.7331
▁accept	-11.7332
▁stationne	-11.7333
▁regretterez	-11.7335
▁niche	-11.7337
▁pop	-11.7339
▁dessinees	-11.734
▁naturellement	-11.7342
▁motif	-11.7342
▁exagerer	-11.7345
▁couteaux	-11.7347
▁repasser	-11.7347
▁poursuivit	-11.7348
▁casier	-11.7351
▁prisonnieres	-11.7352
▁courez	-11.7355
aute	-11.736
emble	-11.7362
▁courait	-11.7367
▁dirigeons	-11.7371
pitre	-11.7372
▁developper	-11.7372
▁offenser	-11.7381
▁eclater	-11.7384
▁lisait	-11.7385
▁noyer	-11.7396
▁inventer	-11.7401
▁sourde	-11.7401
▁paient	-11.7404
▁abandonnerent	-11.7414
isson	-11.7423
▁apparue	-11.7439
▁vante	-11.7446
▁reparti	-11.7452
couvrit	-11.7461
▁exploser	-11.7477
▁sauron	-11.7489
pendent	-11.7495
▁adolescente	-11.7516
▁fuir	-11.752
pille	-11.7523
▁ecrirai	-11.7555
▁crane	-11.7573
▁abandonna	-11.7596
terie	-11.763
▁impuissante	-11.7666
▁foirer	-11.7804
▁chasser	-11.781
rive	-11.7813
issez	-11.7836
▁exerce	-11.7843
▁saigner	-11.7855
▁tolerer	-11.7949
vais	-11.8026
rompt	-11.8034
▁blond	-11.8038
▁recupere	-11.8061
▁semblai	-11.8063
▁celebr	-11.8104
▁delicat	-11.8147
▁divers	-11.815
▁pair	-11.8177
agon	-11.8178
▁vari	-11.8209
▁fiance	-11.8279
▁bouc	-11.8287
▁resiste	-11.8296
prenait	-11.8297
▁baigne	-11.8298
▁pardonnera	-11.8299
▁absolu	-11.8312
▁activ	-11.8314
▁symbol	-11.832
▁meurt	-11.8321
ashington	-11.8321
▁affection	-11.8321
▁affronter	-11.8321
▁apprentissage	-11.8321
▁astucieuse	-11.8321
▁bagarre	-11.8321
▁coiffure	-11.8321
▁communication	-11.8321
▁complot	-11.8321
▁connexion	-11.8321
▁culpabilite	-11.8321
▁decembre	-11.8321
▁deprimant	-11.8321
▁dissertation	-11.8321
▁ecoutons	-11.8321
▁eiffel	-11.8321
▁empoisonne	-11.8321
▁epinards	-11.8321
▁epluche	-11.8321
▁errone	-11.8321
▁esclave	-11.8321
▁exploit	-11.8321
▁faculte	-11.8321
▁fascine	-11.8321
▁flute	-11.8321
▁funerailles	-11.8321
▁hilarant	-11.8321
▁inondation	-11.8321
▁joindra	-11.8321
▁livraison	-11.8321
▁magicien	-11.8321
▁malhonnete	-11.8321
▁mannequin	-11.8321
▁minimum	-11.8321
▁mobile	-11.8321
▁nuageux	-11.8321
▁obstine	-11.8321
▁performance	-11.8321
▁pouce	-11.8321
▁predire	-11.8321
▁prejuges	-11.8321
▁prevision	-11.8321
▁quatorze	-11.8321
▁reconsidere	-11.8321
▁redemarre	-11.8321
▁rememore	-11.8321
▁restiez	-11.8321
▁routiere	-11.8321
▁shopping	-11.8321
▁spaghetti	-11.8321
▁stupefait	-11.8321
▁essuie	-11.8321
▁frustre	-11.8321
▁reparle	-11.8321
▁divin	-11.8321
▁fondamenta	-11.8321
▁plaie	-11.8321
▁reduis	-11.8321
▁creative	-11.8321
▁trentaine	-11.8321
▁vigilan	-11.8321
▁dicte	-11.8321
▁negatif	-11.8321
▁semestre	-11.8321
▁supervise	-11.8321
▁pencha	-11.8321
▁breve	-11.8321
▁carnet	-11.8321
▁congres	-11.8321
▁reflet	-11.8321
▁relie	-11.8321
▁supprime	-11.8321
▁agressiv	-11.8321
▁cafard	-11.8321
▁incite	-11.8321
explore	-11.8321
▁resume	-11.8321
positif	-11.8321
▁cierge	-11.8321
▁concurrence	-11.8321
▁colis	-11.8321
▁endurant	-11.8321
▁tendre	-11.8321
prenais	-11.8321
▁embrouille	-11.8321
ford	-11.8321
▁passionne	-11.8321
▁releve	-11.8321
▁planifie	-11.8321
ernite	-11.8321
▁magie	-11.8321
▁peigni	-11.8321
▁telescope	-11.8321
▁maintenir	-11.8322
▁pensaient	-11.8322
▁penche	-11.8322
▁trouvions	-11.8322
▁vetue	-11.8322
▁declaration	-11.8322
▁assume	-11.8322
▁debattre	-11.8322
▁boule	-11.8323
▁comprenons	-11.8323
▁dortoir	-11.8323
▁oliv	-11.8323
▁evacuer	-11.8325
▁allie	-11.8325
▁redaction	-11.8325
▁formation	-11.8325
▁departement	-11.8325
▁communiquer	-11.8326
▁conviendrait	-11.8326
▁metaux	-11.8326
▁alcoolique	-11.8326
▁punition	-11.8327
▁amusons	-11.8327
▁chercha	-11.8328
▁cingle	-11.8328
▁corn	-11.8329
aido	-11.833
▁grasse	-11.833
▁emis	-11.8331
▁archeolog	-11.8331
abine	-11.8332
▁carton	-11.8332
aleine	-11.8332
▁vegetarienne	-11.8333
▁inhabituelle	-11.8333
▁souhaitais	-11.8334
▁fimes	-11.8334
▁apparut	-11.8336
▁pleuvrait	-11.8336
▁ressentez	-11.8336
▁refait	-11.8336
▁fesse	-11.8338
▁attendions	-11.8339
▁fondee	-11.834
▁chasseur	-11.8343
▁etire	-11.8344
▁peintre	-11.8345
▁loge	-11.8345
▁basson	-11.8346
▁brulant	-11.8347
▁rale	-11.8348
▁adviendra	-11.8348
▁ecoutait	-11.8349
▁nourrit	-11.8349
defaire	-11.835
▁arc	-11.8354
alisation	-11.8354
▁battent	-11.8355
▁foin	-11.8356
▁lisant	-11.8358
▁remettra	-11.8367
▁entendent	-11.8371
▁coude	-11.8375
▁exagere	-11.8386
▁finale	-11.8397
▁raccompagne	-11.8404
▁mini	-11.8416
valent	-11.8427
verne	-11.8452
aud	-11.8481
▁analyse	-11.8494
▁nettoy	-11.8519
loque	-11.855
▁abaisse	-11.8579
▁champion	-11.8582
▁romp	-11.8586
vetir	-11.8588
▁dissimuler	-11.8598
▁grossi	-11.8663
aissez	-11.8674
▁compar	-11.8717
▁rougir	-11.8791
▁apport	-11.8796
viendrait	-11.8856
▁comprendrai	-11.8946
▁mettrai	-11.9002
▁tricot	-11.9019
▁embeter	-11.9056
genc	-11.909
▁remerci	-11.9126
▁cran	-11.9134
▁etroit	-11.9143
▁entrain	-11.9221
▁priv	-11.9229
▁relu	-11.9232
▁explose	-11.9242
▁inscri	-11.9261
▁araignee	-11.9289
▁semblable	-11.9291
▁serpent	-11.9291
▁fuit	-11.9294
▁chirurgie	-11.93
▁annul	-11.93
uillet	-11.9356
▁suspend	-11.9356
avais	-11.9357
▁significati	-11.9373
demande	-11.9383
▁contribu	-11.9383
four	-11.9384
▁traditionnel	-11.9405
cade	-11.9409
inj	-11.941
▁repasse	-11.9417
▁amena	-11.9418
▁profession	-11.9418
▁enseigna	-11.9421
▁conviendra	-11.9427
▁reconnait	-11.9429
▁soupcon	-11.943
▁grimpa	-11.9432
▁handicap	-11.9432
▁officiel	-11.9432
▁tatillon	-11.9432
espeare	-11.9432
ood	-11.9432
▁aboya	-11.9432
▁accompagna	-11.9432
▁acquitte	-11.9432
▁annonca	-11.9432
▁anonyme	-11.9432
▁anxieux	-11.9432
▁approchons	-11.9432
▁aspect	-11.9432
▁assidument	-11.9432
▁astucieux	-11.9432
▁banlieue	-11.9432
▁betise	-11.9432
▁bourgade	-11.9432
▁cabane	-11.9432
▁chaleureusement	-11.9432
▁chandelle	-11.9432
▁chretien	-11.9432
▁clochait	-11.9432
▁commanda	-11.9432
▁composition	-11.9432
▁comprehension	-11.9432
▁consciencieuse	-11.9432
▁convenait	-11.9432
▁couloir	-11.9432
▁dactylo	-11.9432
▁degueulasse	-11.9432
▁democratie	-11.9432
▁dinosaures	-11.9432
▁diplomate	-11.9432
▁enrhume	-11.9432
▁ensoleille	-11.9432
▁enthousiaste	-11.9432
▁entreprend	-11.9432
▁entretenu	-11.9432
▁essouffle	-11.9432
▁etourdi	-11.9432
▁evade	-11.9432
▁fumait	-11.9432
▁gaspillage	-11.9432
▁givre	-11.9432
▁hospitalite	-11.9432
▁hotesse	-11.9432
▁impermeable	-11.9432
▁indispensable	-11.9432
▁injection	-11.9432
▁intersection	-11.9432
▁intervenir	-11.9432
▁ivrogne	-11.9432
▁malediction	-11.9432
▁marathon	-11.9432
▁orchestre	-11.9432
▁ouragan	-11.9432
▁paranoiaque	-11.9432
▁permanence	-11.9432
▁perruque	-11.9432
▁personnage	-11.9432
▁pommier	-11.9432
▁ragout	-11.9432
▁refugies	-11.9432
▁reprimande	-11.9432
▁ronfle	-11.9432
▁sarcastique	-11.9432
▁selectionne	-11.9432
▁splendide	-11.9432
▁strategie	-11.9432
▁terrifiant	-11.9432
▁toupet	-11.9432
▁tragedie	-11.9432
▁blotti	-11.9432
▁cherchons	-11.9432
▁decline	-11.9432
▁digere	-11.9432
▁ecran	-11.9432
▁evier	-11.9432
▁quelquefois	-11.9432
▁ultime	-11.9432
▁baissa	-11.9432
▁psychi	-11.9432
▁rayon	-11.9432
▁reclame	-11.9432
▁virus	-11.9432
▁volley	-11.9432
▁annuel	-11.9432
▁etrangle	-11.9432
▁expedi	-11.9432
▁requin	-11.9432
▁texto	-11.9432
▁provisions	-11.9432
▁transmis	-11.9432
▁loterie	-11.9432
▁onereuse	-11.9432
▁pouffer	-11.9432
▁potentiel	-11.9432
▁fervent	-11.9432
▁moqua	-11.9432
▁habitants	-11.9432
▁effraie	-11.9432
▁fonce	-11.9432
▁testament	-11.9432
▁vilain	-11.9432
▁tribu	-11.9432
▁contempl	-11.9432
▁persist	-11.9432
▁canard	-11.9432
▁efface	-11.9432
▁tunnel	-11.9432
▁deniche	-11.9432
▁frein	-11.9432
▁menotte	-11.9432
▁soumett	-11.9432
▁malchanceuse	-11.9432
▁etiquette	-11.9433
▁pria	-11.9433
▁chiant	-11.9433
▁ample	-11.9433
duction	-11.9433
▁mardi	-11.9433
▁close	-11.9433
▁caillou	-11.9433
▁predit	-11.9433
▁precipitation	-11.9434
▁avide	-11.9434
▁renouveler	-11.9434
▁utilisation	-11.9435
▁geant	-11.9435
▁specialiste	-11.9435
▁endette	-11.9435
▁deviez	-11.9435
▁defendre	-11.9435
▁pasteque	-11.9435
▁coureur	-11.9437
▁chantage	-11.9438
▁septieme	-11.9438
▁produirait	-11.9438
▁coca	-11.9439
▁refais	-11.9439
▁favorite	-11.9439
▁craignais	-11.9439
▁secondaire	-11.9439
▁franchi	-11.944
▁manquait	-11.9441
▁survient	-11.9442
▁serment	-11.9445
▁effondrer	-11.9445
▁tenant	-11.9447
▁etasunienne	-11.9448
▁ignorant	-11.9449
▁deplacement	-11.9449
▁rencontrai	-11.9449
▁professionnelle	-11.9452
▁chameau	-11.9452
▁masque	-11.9455
▁vivement	-11.9456
▁bateaux	-11.9457
▁separa	-11.9458
▁separement	-11.9461
▁anime	-11.9465
▁souciais	-11.9468
▁verra	-11.9474
▁tram	-11.9481
▁stressant	-11.9484
uffe	-11.9485
▁couronne	-11.9486
▁tardive	-11.9486
▁cerne	-11.9501
▁contenu	-11.9502
▁dechira	-11.952
opie	-11.9541
▁centime	-11.9554
▁chauff	-11.9632
▁termina	-11.9653
▁pele	-11.9854
▁tolere	-11.9865
gardons	-11.9922
▁enseignerai	-11.9934
prop	-11.9952
▁mental	-12.0051
▁continu	-12.0054
▁protestat	-12.0103
▁survienne	-12.0158
▁aliment	-12.0177
▁poursuiv	-12.0182
▁assi	-12.0226
tendez	-12.0415
ophe	-12.0442
▁assassin	-12.0467
▁tenterai	-12.047
▁regret	-12.0494
▁rond	-12.0515
▁moustique	-12.0539
ssie	-12.0547
▁hero	-12.0551
▁import	-12.0571
▁renomme	-12.0575
indo	-12.0586
▁cigare	-12.0664
▁survie	-12.0672
▁maigrichon	-12.0672
▁econom	-12.0675
▁merveille	-12.0678
▁obscur	-12.0681
▁renseigne	-12.0682
▁artificiel	-12.0682
▁contusion	-12.0682
▁inaugur	-12.0682
▁intensi	-12.0682
▁persever	-12.0682
icots	-12.0682
▁adversaire	-12.0682
▁allure	-12.0682
▁anticipe	-12.0682
▁asiatiques	-12.0682
▁assombri	-12.0682
▁assoupi	-12.0682
▁atomique	-12.0682
▁auditoire	-12.0682
▁autoroute	-12.0682
▁baby	-12.0682
▁barbecue	-12.0682
▁benisse	-12.0682
▁boulangerie	-12.0682
▁bouquin	-12.0682
▁catastroph	-12.0682
▁cellulaire	-12.0682
▁cendrier	-12.0682
▁chimique	-12.0682
▁chopin	-12.0682
▁chuchota	-12.0682
▁civilisation	-12.0682
▁confiture	-12.0682
▁conservateur	-12.0682
▁cottage	-12.0682
▁couvercle	-12.0682
▁daccord	-12.0682
▁decoupe	-12.0682
▁deraisonnable	-12.0682
▁dorenavant	-12.0682
▁douloureuse	-12.0682
▁echoua	-12.0682
▁egaux	-12.0682
▁elimine	-12.0682
▁emprisonne	-12.0682
▁epicerie	-12.0682
▁escorte	-12.0682
▁evasion	-12.0682
▁evolue	-12.0682
▁excusa	-12.0682
▁facilite	-12.0682
▁familia	-12.0682
▁fevrier	-12.0682
▁flingue	-12.0682
▁folie	-12.0682
▁fraye	-12.0682
▁hospitalise	-12.0682
▁ignorons	-12.0682
▁indication	-12.0682
▁ingredient	-12.0682
▁inspecte	-12.0682
▁jambon	-12.0682
▁jogging	-12.0682
▁mammifere	-12.0682
▁manager	-12.0682
▁mendiant	-12.0682
▁musical	-12.0682
▁obsede	-12.0682
▁obtint	-12.0682
▁officiellement	-12.0682
▁originaire	-12.0682
▁paradis	-12.0682
▁paralyse	-12.0682
▁penible	-12.0682
▁penurie	-12.0682
▁persuada	-12.0682
▁plains	-12.0682
▁politesse	-12.0682
▁poubelle	-12.0682
▁poudre	-12.0682
▁prediction	-12.0682
▁prophetie	-12.0682
▁rebelles	-12.0682
▁reconduir	-12.0682
▁rejeta	-12.0682
▁sauvegarde	-12.0682
▁signifiait	-12.0682
▁supposition	-12.0682
▁suspicieuse	-12.0682
▁symptome	-12.0682
▁terroristes	-12.0682
▁titanic	-12.0682
▁transmettr	-12.0682
▁travaux	-12.0682
▁trombone	-12.0682
▁tronconneuse	-12.0682
▁vedette	-12.0682
▁vitamine	-12.0682
▁achetons	-12.0682
▁apparentee	-12.0682
▁enfonce	-12.0682
▁entrevue	-12.0682
▁esseule	-12.0682
▁frime	-12.0682
▁paisible	-12.0682
▁palais	-12.0682
▁reticent	-12.0682
▁romain	-12.0682
▁subitement	-12.0682
▁galant	-12.0682
▁thermo	-12.0682
▁carrure	-12.0682
▁creatif	-12.0682
▁lentilles	-12.0682
▁transfere	-12.0682
▁amicaux	-12.0682
▁rival	-12.0682
▁poumon	-12.0682
▁rafraichissant	-12.0682
▁romancier	-12.0682
▁illusion	-12.0682
▁materia	-12.0682
▁eloge	-12.0682
▁vitrine	-12.0682
▁poele	-12.0682
▁remit	-12.0682
▁confesse	-12.0682
▁torse	-12.0682
▁abime	-12.0682
▁pompe	-12.0682
▁repute	-12.0682
▁charite	-12.0682
▁dechets	-12.0682
▁terrestre	-12.0682
▁vapeur	-12.0682
▁pretexte	-12.0682
▁ingenieuse	-12.0682
▁lecteur	-12.0682
▁conception	-12.0682
▁gave	-12.0682
▁poursuit	-12.0682
forca	-12.0682
▁deboutonn	-12.0682
▁heroine	-12.0683
▁signature	-12.0683
▁entete	-12.0683
▁signaler	-12.0683
▁bidon	-12.0683
▁violoncelle	-12.0683
▁inclina	-12.0683
▁choux	-12.0683
▁parviendron	-12.0683
▁farine	-12.0684
▁solliciter	-12.0684
arbor	-12.0684
▁coton	-12.0684
▁profil	-12.0685
▁nationalite	-12.0685
otique	-12.0685
▁chaleureux	-12.0685
▁climatique	-12.0686
▁parages	-12.0687
▁acier	-12.0687
▁rince	-12.0689
▁appartienne	-12.0689
▁maree	-12.0689
▁conteste	-12.069
accidentellement	-12.069
arate	-12.069
▁repara	-12.0691
▁chur	-12.0691
▁maigrichonne	-12.0692
▁rame	-12.0694
▁bec	-12.0699
▁finance	-12.07
▁meneur	-12.07
▁soucieuse	-12.07
orgue	-12.0701
▁dentaire	-12.0713
▁visita	-12.0737
▁refere	-12.0757
▁holl	-12.0763
▁matinal	-12.0781
▁progresse	-12.0807
▁roula	-12.0807
▁coucha	-12.0821
meuble	-12.0841
oins	-12.0904
▁boive	-12.0912
▁fournisse	-12.0952
▁neveu	-12.1192
tendirent	-12.1211
ourant	-12.1245
pardonn	-12.1258
▁cuisi	-12.1268
gonfle	-12.1282
▁organis	-12.1338
▁demarr	-12.1339
▁exil	-12.1459
▁brul	-12.1462
▁tromp	-12.1482
identiel	-12.1559
▁compos	-12.1564
ormalite	-12.1608
comptais	-12.1615
moins	-12.168
▁hache	-12.1704
▁souscri	-12.1711
▁dissimule	-12.1719
▁menton	-12.1737
▁pouss	-12.1843
▁fro	-12.1883
▁gagnai	-12.1927
▁ressembl	-12.195
▁promen	-12.1965
▁consequence	-12.1968
▁priorite	-12.1968
▁vetement	-12.1973
▁depen	-12.1978
▁mondial	-12.2004
▁second	-12.2045
▁introdu	-12.2061
▁decoll	-12.2062
▁homo	-12.2071
▁elect	-12.2072
touche	-12.2081
▁ecrivi	-12.2097
▁norma	-12.21
▁fru	-12.2103
▁sympathi	-12.2106
▁suff	-12.2106
q	-12.2107
▁malchance	-12.2107
▁electrici	-12.2108
▁chou	-12.2109
▁paresse	-12.2109
▁bouill	-12.2109
▁ingeni	-12.2109
▁initial	-12.211
▁concept	-12.211
▁cadet	-12.211
▁chrono	-12.211
▁hallucin	-12.211
mplacable	-12.211
rruption	-12.211
▁abattre	-12.211
▁additionnelle	-12.211
▁admirateur	-12.211
▁affiche	-12.211
▁aggrave	-12.211
▁agriculture	-12.211
▁allusion	-12.211
▁amelioration	-12.211
▁artifice	-12.211
▁autopsie	-12.211
▁bacteries	-12.211
▁bandit	-12.211
▁beatles	-12.211
▁beignet	-12.211
▁benefique	-12.211
▁berlin	-12.211
▁bijoux	-12.211
▁bretagne	-12.211
▁cacahuetes	-12.211
▁carburant	-12.211
▁cellule	-12.211
▁chagrin	-12.211
▁climatisation	-12.211
▁combinaison	-12.211
▁compagne	-12.211
▁comprehensif	-12.211
▁conformer	-12.211
▁consciencieux	-12.211
▁controverse	-12.211
▁deception	-12.211
▁deteriore	-12.211
▁determination	-12.211
▁devoiler	-12.211
▁disparition	-12.211
▁dissipe	-12.211
▁dissuade	-12.211
▁ebriete	-12.211
▁ecoutiez	-12.211
▁emotive	-12.211
▁epidemie	-12.211
▁execution	-12.211
▁exprima	-12.211
▁extenue	-12.211
▁fabuleu	-12.211
▁festival	-12.211
▁flippe	-12.211
▁fonctionnait	-12.211
▁frustrant	-12.211
▁geographie	-12.211
▁helicoptere	-12.211
▁hilton	-12.211
▁iceberg	-12.211
▁impartial	-12.211
▁imprevu	-12.211
▁inapercu	-12.211
▁incontrolable	-12.211
▁inflige	-12.211
▁influent	-12.211
▁infondee	-12.211
▁inonde	-12.211
▁inscription	-12.211
▁interessait	-12.211
▁intrepide	-12.211
▁ipad	-12.211
▁medicaux	-12.211
▁mediocre	-12.211
▁mejuge	-12.211
▁messieurs	-12.211
▁meteorologique	-12.211
▁migraine	-12.211
▁mozart	-12.211
▁nagoya	-12.211
▁navigateur	-12.211
▁nocturne	-12.211
▁numerique	-12.211
▁offusque	-12.211
▁palissade	-12.211
▁pathetique	-12.211
▁penetra	-12.211
▁permanente	-12.211
▁phase	-12.211
▁popularite	-12.211
▁portuga	-12.211
▁precaution	-12.211
▁previsible	-12.211
▁productive	-12.211
▁progressivement	-12.211
▁prune	-12.211
▁raciale	-12.211
▁racine	-12.211
▁raciste	-12.211
▁radiateur	-12.211
▁ramassa	-12.211
▁ravissante	-12.211
▁reclamation	-12.211
▁recours	-12.211
▁redresse	-12.211
▁relaxe	-12.211
▁representant	-12.211
▁representation	-12.211
▁resplendissant	-12.211
▁retreci	-12.211
▁reviendriez	-12.211
▁ruban	-12.211
▁securise	-12.211
▁silhouette	-12.211
▁sinistre	-12.211
▁somnol	-12.211
▁statistiques	-12.211
▁submerge	-12.211
▁urticaire	-12.211
▁virgule	-12.211
▁vocabulaire	-12.211
▁approximati	-12.211
▁briquet	-12.211
▁eternue	-12.211
▁implor	-12.211
▁introduire	-12.211
▁melodie	-12.211
▁prealable	-12.211
▁subtil	-12.211
▁civile	-12.211
▁deficit	-12.211
▁fiscale	-12.211
▁generaux	-12.211
▁honore	-12.211
▁incul	-12.211
▁opere	-12.211
▁rocher	-12.211
▁ajouta	-12.211
▁gomme	-12.211
▁maltraite	-12.211
▁parallel	-12.211
▁regne	-12.211
▁inverse	-12.211
▁ordure	-12.211
▁prolonge	-12.211
▁emeche	-12.211
▁fax	-12.211
▁gifle	-12.211
▁alliance	-12.211
▁senateur	-12.211
▁sobre	-12.211
▁tripes	-12.211
▁aiguille	-12.211
▁preoccupation	-12.211
▁audition	-12.211
▁etanche	-12.211
▁endort	-12.211
▁ambi	-12.211
▁cabinet	-12.211
▁agneau	-12.211
▁bluffe	-12.2111
▁etouffe	-12.2111
▁sapin	-12.2111
▁acced	-12.2111
▁bref	-12.2111
▁ancetre	-12.2111
▁crochet	-12.2111
▁detecte	-12.2111
▁fusible	-12.2111
▁infini	-12.2111
▁rentrons	-12.2111
▁amasse	-12.2111
▁fatal	-12.2111
▁noyade	-12.2111
▁lecole	-12.2111
▁directrice	-12.2111
▁divertissant	-12.2111
▁autorisation	-12.2111
▁remerciements	-12.2111
▁initialement	-12.2111
▁moulin	-12.2111
▁pente	-12.2111
▁collecte	-12.2111
escence	-12.2111
▁secoua	-12.2111
▁cocaine	-12.2111
▁negligence	-12.2111
▁secteur	-12.2112
▁discutames	-12.2112
▁propag	-12.2112
▁noya	-12.2112
▁repeta	-12.2112
▁brisa	-12.2112
▁connaissions	-12.2112
▁entrions	-12.2112
▁fiction	-12.2112
▁marchand	-12.2112
▁rigolo	-12.2112
▁regrettable	-12.2112
▁alerte	-12.2113
▁craque	-12.2113
▁element	-12.2113
▁rage	-12.2114
▁central	-12.2114
▁cadette	-12.2115
▁monstre	-12.2116
▁eleva	-12.2122
▁ecrasa	-12.2125
▁conta	-12.2127
bourg	-12.2137
ario	-12.2144
▁norme	-12.2158
▁discrimination	-12.2165
▁plateau	-12.2176
▁medite	-12.2188
▁criminelle	-12.2193
▁obtiendra	-12.2201
▁vaudr	-12.221
decorer	-12.2264
etho	-12.2278
▁enleva	-12.2278
▁gagna	-12.2297
▁consomm	-12.2375
vivions	-12.2423
bay	-12.246
bul	-12.2473
▁resid	-12.252
veillerai	-12.2579
▁exist	-12.2647
▁reproduis	-12.2749
enaient	-12.2751
▁detruisi	-12.2862
▁considerai	-12.2896
▁emball	-12.2921
▁appret	-12.2969
▁gonfl	-12.3014
▁amus	-12.3081
▁transport	-12.3115
▁mainten	-12.3149
▁contract	-12.3155
▁protest	-12.3194
▁remet	-12.3316
spectu	-12.3409
menage	-12.3451
▁vivra	-12.3482
▁cooper	-12.3483
couraient	-12.3503
roupie	-12.3547
▁calm	-12.3628
▁otage	-12.3634
▁outil	-12.3636
▁mouton	-12.3637
tiendront	-12.3683
aimerais	-12.3698
criminations	-12.3713
acceptable	-12.3727
hiver	-12.3728
attendre	-12.3728
sauter	-12.373
▁capital	-12.3733
▁surmonte	-12.3752
stration	-12.3765
aguette	-12.3767
▁independa	-12.377
▁souviendra	-12.377
▁constitution	-12.3771
▁sollicit	-12.3774
▁ecrivai	-12.3774
▁contagieu	-12.3775
clina	-12.3775
▁adieu	-12.3776
▁autorisa	-12.3776
rcul	-12.3777
▁affil	-12.3777
▁delivr	-12.3777
▁flirt	-12.3777
▁rebondi	-12.3777
approuva	-12.3777
compatible	-12.3777
evalue	-12.3777
idnappe	-12.3777
▁abruti	-12.3777
▁acharne	-12.3777
▁adhere	-12.3777
▁affaibli	-12.3777
▁agacant	-12.3777
▁agenouille	-12.3777
▁antidote	-12.3777
▁anxieuse	-12.3777
▁appat	-12.3777
▁aquarium	-12.3777
▁arrestation	-12.3777
▁arterielle	-12.3777
▁auditorium	-12.3777
▁banjo	-12.3777
▁barbier	-12.3777
▁brochure	-12.3777
▁cafeteria	-12.3777
▁championnat	-12.3777
▁chevelure	-12.3777
▁chimie	-12.3777
▁collision	-12.3777
▁commencions	-12.3777
▁comprehensive	-12.3777
▁concoct	-12.3777
▁contemporain	-12.3777
▁converser	-12.3777
▁coquillages	-12.3777
▁coquille	-12.3777
▁corvees	-12.3777
▁coulisses	-12.3777
▁couvrir	-12.3777
▁credible	-12.3777
▁deplaca	-12.3777
▁deroutant	-12.3777
▁diabetique	-12.3777
▁dictateur	-12.3777
▁disneyland	-12.3777
▁dormaient	-12.3777
▁edition	-12.3777
▁effondra	-12.3777
▁endimanche	-12.3777
▁ennuyant	-12.3777
▁epuisant	-12.3777
▁eruption	-12.3777
▁essayiez	-12.3777
▁fanfare	-12.3777
▁fracture	-12.3777
▁fredonne	-12.3777
▁fugitif	-12.3777
▁guichet	-12.3777
▁harceler	-12.3777
▁hibern	-12.3777
▁homosexuel	-12.3777
▁hostile	-12.3777
▁hydrogene	-12.3777
▁ignoriez	-12.3777
▁immigrants	-12.3777
▁immiscer	-12.3777
▁imprevisible	-12.3777
▁inapproprie	-12.3777
▁incline	-12.3777
▁incorrigible	-12.3777
▁indelicat	-12.3777
▁indiens	-12.3777
▁indispose	-12.3777
▁inexact	-12.3777
▁inflation	-12.3777
▁inoubliable	-12.3777
▁intact	-12.3777
▁intense	-12.3777
▁intermediaire	-12.3777
▁introverti	-12.3777
▁invincible	-12.3777
▁ironique	-12.3777
▁irresistible	-12.3777
▁judicieux	-12.3777
▁laboratoire	-12.3777
▁loyaute	-12.3777
▁maillot	-12.3777
▁maquillage	-12.3777
▁mexicain	-12.3777
▁musulman	-12.3777
▁obstacle	-12.3777
▁optique	-12.3777
▁perroquet	-12.3777
▁photogenique	-12.3777
▁picasso	-12.3777
▁piqure	-12.3777
▁plaide	-12.3777
▁poignarde	-12.3777
▁poignet	-12.3777
▁pollue	-12.3777
▁premonition	-12.3777
▁projection	-12.3777
▁prononca	-12.3777
▁psychologue	-12.3777
▁puritain	-12.3777
▁raccorde	-12.3777
▁reformuler	-12.3777
▁registre	-12.3777
▁rejoigne	-12.3777
▁republicain	-12.3777
▁resistance	-12.3777
▁resistant	-12.3777
▁revanche	-12.3777
▁ruisseau	-12.3777
▁scenario	-12.3777
▁singapour	-12.3777
▁sociaux	-12.3777
▁solitude	-12.3777
▁souffrait	-12.3777
▁souffrance	-12.3777
▁souleva	-12.3777
▁stimula	-12.3777
▁stupidite	-12.3777
▁superficielle	-12.3777
▁suspicieux	-12.3777
▁territoire	-12.3777
▁thailande	-12.3777
▁tracteur	-12.3777
▁tribunal	-12.3777
▁typique	-12.3777
▁tyranni	-12.3777
▁veterinaire	-12.3777
▁veuve	-12.3777
▁victorie	-12.3777
▁yaourt	-12.3777
▁centimetres	-12.3777
▁empira	-12.3777
▁excede	-12.3777
▁felicitations	-12.3777
▁fosse	-12.3777
▁grassouillet	-12.3777
▁hypocri	-12.3777
▁navette	-12.3777
▁perfection	-12.3777
▁revolte	-12.3777
▁shampo	-12.3777
▁suffire	-12.3777
▁trone	-12.3777
▁chigno	-12.3777
▁debranche	-12.3777
▁feroce	-12.3777
▁paragraphe	-12.3777
▁poesie	-12.3777
▁relay	-12.3777
▁chope	-12.3777
▁debattu	-12.3777
▁mangions	-12.3777
▁comedie	-12.3777
▁irrite	-12.3777
▁processus	-12.3777
▁tondeuse	-12.3777
▁apparentes	-12.3777
▁vanille	-12.3777
▁vieillit	-12.3777
▁naga	-12.3777
▁consenti	-12.3777
▁ebou	-12.3777
▁endurer	-12.3777
▁gain	-12.3777
▁massif	-12.3777
▁murmur	-12.3777
▁souliers	-12.3777
▁tordu	-12.3777
▁pressenti	-12.3777
▁paraissent	-12.3777
▁travailliez	-12.3777
▁devalise	-12.3777
▁location	-12.3777
▁reflechissais	-12.3777
▁texas	-12.3777
▁bisou	-12.3777
▁eternellement	-12.3777
▁pieton	-12.3777
enfila	-12.3777
▁parlions	-12.3777
▁renseignements	-12.3777
▁microscope	-12.3777
▁score	-12.3777
▁magique	-12.3777
▁tournevis	-12.3777
▁cereales	-12.3777
▁debrouilla	-12.3777
▁prime	-12.3777
▁bravoure	-12.3777
▁esperiez	-12.3777
▁louche	-12.3777
▁gouverneur	-12.3777
▁venaient	-12.3777
▁excessive	-12.3777
▁tarif	-12.3777
▁halte	-12.3777
▁calori	-12.3778
▁culot	-12.3778
▁isla	-12.3778
▁brutalement	-12.3778
▁comprenais	-12.3778
▁comprenait	-12.3778
▁geste	-12.3778
▁encouragements	-12.3778
argot	-12.3778
▁depecha	-12.3778
▁gracie	-12.3778
▁hurla	-12.3778
▁vieillir	-12.3778
▁symbolise	-12.3778
▁decois	-12.3778
▁hoquet	-12.3778
▁massive	-12.3779
▁certitude	-12.3779
▁servant	-12.3779
▁comble	-12.3779
▁initie	-12.3779
▁contagieuse	-12.378
▁puces	-12.378
ctique	-12.3783
scope	-12.3784
teindre	-12.3786
▁reseau	-12.3787
▁dalle	-12.3787
sonna	-12.3788
encontre	-12.3788
▁craintive	-12.3792
▁choi	-12.3802
lisible	-12.3804
▁froisse	-12.3824
donniez	-12.3859
simplement	-12.4007
ariat	-12.4101
▁grati	-12.4107
▁divis	-12.4164
▁efforc	-12.4167
▁advi	-12.4245
▁cooperati	-12.4305
▁decouvri	-12.4312
posa	-12.4341
primer	-12.447
▁raccroch	-12.4899
▁comport	-12.4923
passees	-12.5026
baisser	-12.5222
metteur	-12.5228
ourrons	-12.5247
auves	-12.5248
▁termin	-12.5256
▁paniqu	-12.5342
gestion	-12.5379
▁excit	-12.5418
▁parcour	-12.5423
▁veuill	-12.5447
▁avanc	-12.5481
▁tradui	-12.5582
▁exager	-12.5589
▁international	-12.5597
▁devienne	-12.561
▁rattrap	-12.5615
▁regl	-12.5619
▁control	-12.5622
▁insecte	-12.5634
ecrire	-12.5644
brou	-12.5655
▁envelopp	-12.5655
ference	-12.5685
promette	-12.5702
homme	-12.5718
tourna	-12.5725
▁depec	-12.5726
▁rigol	-12.5726
habitude	-12.5728
intention	-12.5728
habite	-12.5728
gare	-12.5729
▁resoudr	-12.5733
ormais	-12.5739
▁effondre	-12.5752
▁recommence	-12.5752
▁except	-12.5759
▁possedai	-12.5764
▁etonna	-12.5766
▁satisf	-12.5771
graphe	-12.5774
pondu	-12.5775
▁supplement	-12.5776
rievement	-12.5777
▁educat	-12.5777
▁brutal	-12.5777
▁eventuelle	-12.5777
▁nappe	-12.5777
▁assorti	-12.5777
▁captiv	-12.5777
▁exasper	-12.5777
▁improvis	-12.5777
▁minutieuse	-12.5777
▁mysterieuse	-12.5777
▁symphoni	-12.5777
imono	-12.5777
interrupteur	-12.5777
intoxication	-12.5777
ohama	-12.5777
suetude	-12.5777
▁abondante	-12.5777
▁acclamer	-12.5777
▁annuaire	-12.5777
▁appauvrissent	-12.5777
▁approfondi	-12.5777
▁ascension	-12.5777
▁assembla	-12.5777
▁assoiffe	-12.5777
▁auberge	-12.5777
▁authentique	-12.5777
▁autobus	-12.5777
▁autoritaire	-12.5777
▁belgique	-12.5777
▁betail	-12.5777
▁bilingue	-12.5777
▁bissextile	-12.5777
▁bouleverse	-12.5777
▁caracteristique	-12.5777
▁catalogue	-12.5777
▁chips	-12.5777
▁chirurgicale	-12.5777
▁cholesterol	-12.5777
▁cimetiere	-12.5777
▁citadine	-12.5777
▁civils	-12.5777
▁collabor	-12.5777
▁comparaison	-12.5777
▁conductrice	-12.5777
▁congelateur	-12.5777
▁consacrai	-12.5777
▁contravention	-12.5777
▁convainqu	-12.5777
▁critiqua	-12.5777
▁deambul	-12.5777
▁decapsuleur	-12.5777
▁dechiffrer	-12.5777
▁deconnecte	-12.5777
▁decrivent	-12.5777
▁deguerpi	-12.5777
▁denomme	-12.5777
▁deodorant	-12.5777
▁dilemme	-12.5777
▁diplomatique	-12.5777
▁distraction	-12.5777
▁divertir	-12.5777
▁donnons	-12.5777
▁echauffe	-12.5777
▁eclipse	-12.5777
▁elastique	-12.5777
▁emerge	-12.5777
▁eponge	-12.5777
▁erudit	-12.5777
▁escargots	-12.5777
▁francisco	-12.5777
▁gaffe	-12.5777
▁geniaux	-12.5777
▁glacier	-12.5777
▁grognon	-12.5777
▁hamecon	-12.5777
▁hibou	-12.5777
▁hopitaux	-12.5777
▁hyper	-12.5777
▁impasse	-12.5777
▁impensable	-12.5777
▁indige	-12.5777
▁insensible	-12.5777
▁insouciant	-12.5777
▁insuffisant	-12.5777
▁intermittence	-12.5777
▁interruption	-12.5777
▁ipod	-12.5777
▁irrealiste	-12.5777
▁irritant	-12.5777
▁joyeuse	-12.5777
▁judicieusement	-12.5777
▁localisation	-12.5777
▁majuscule	-12.5777
▁malpoli	-12.5777
▁manigance	-12.5777
▁matelas	-12.5777
▁medievale	-12.5777
▁mijote	-12.5777
▁minorite	-12.5777
▁misericordieu	-12.5777
▁mutuellement	-12.5777
▁obligatoire	-12.5777
▁occidental	-12.5777
▁offensive	-12.5777
▁office	-12.5777
▁opposition	-12.5777
▁organe	-12.5777
▁paperasse	-12.5777
▁pardessus	-12.5777
▁patates	-12.5777
▁patiemment	-12.5777
▁peindrai	-12.5777
▁pessimiste	-12.5777
▁phenomene	-12.5777
▁pizzeria	-12.5777
▁pologne	-12.5777
▁positive	-12.5777
▁predateur	-12.5777
▁psychologie	-12.5777
▁qualifications	-12.5777
▁radeau	-12.5777
▁rancune	-12.5777
▁reconfortant	-12.5777
▁reconforter	-12.5777
▁religieuse	-12.5777
▁rencard	-12.5777
▁repetition	-12.5777
▁reprehensible	-12.5777
▁resserre	-12.5777
▁roupillon	-12.5777
▁routine	-12.5777
▁royal	-12.5777
▁royaume	-12.5777
▁rugueux	-12.5777
▁sculpte	-12.5777
▁sculpture	-12.5777
▁secouru	-12.5777
▁singulier	-12.5777
▁smith	-12.5777
▁sofa	-12.5777
▁soudoye	-12.5777
▁souffrant	-12.5777
▁souveniez	-12.5777
▁spectaculaire	-12.5777
▁structure	-12.5777
▁telephonai	-12.5777
▁temporise	-12.5777
▁tenace	-12.5777
▁terrasse	-12.5777
▁toxico	-12.5777
▁traducteur	-12.5777
▁trafic	-12.5777
▁triangle	-12.5777
▁trottoir	-12.5777
▁ventilateur	-12.5777
▁verglace	-12.5777
▁veridique	-12.5777
▁vulgaire	-12.5777
▁zelande	-12.5777
graphique	-12.5777
oxyd	-12.5777
trepasse	-12.5777
▁allegations	-12.5777
▁avare	-12.5777
▁clandestin	-12.5777
▁claqua	-12.5777
▁confisque	-12.5777
▁deconseille	-12.5777
▁deloyal	-12.5777
▁desamorce	-12.5777
▁disputa	-12.5777
▁ecologi	-12.5777
▁gonzesse	-12.5777
▁grange	-12.5777
▁hideux	-12.5777
▁loyal	-12.5777
▁machoire	-12.5777
▁mensuelle	-12.5777
▁nostalgi	-12.5777
▁penderie	-12.5777
▁raval	-12.5777
▁repentir	-12.5777
▁rivage	-12.5777
▁sabot	-12.5777
▁secheresse	-12.5777
▁survivron	-12.5777
▁traumati	-12.5777
▁vaccin	-12.5777
▁vibrer	-12.5777
ansonnet	-12.5777
▁charpent	-12.5777
▁eclos	-12.5777
▁escroc	-12.5777
▁eteignirent	-12.5777
▁jongler	-12.5777
▁legitime	-12.5777
▁opposants	-12.5777
▁prospere	-12.5777
▁redev	-12.5777
▁cafetiere	-12.5777
▁douane	-12.5777
▁excessif	-12.5777
▁berne	-12.5777
▁esperions	-12.5777
▁fourbu	-12.5777
▁raye	-12.5777
▁reforme	-12.5777
▁alpes	-12.5777
▁barrage	-12.5777
▁entamer	-12.5777
▁etouffa	-12.5777
▁baquet	-12.5777
▁demoli	-12.5777
anji	-12.5777
▁mesdames	-12.5777
▁tequila	-12.5777
▁voyais	-12.5777
▁aversion	-12.5777
▁depression	-12.5777
▁desarme	-12.5777
▁redout	-12.5777
▁vaincu	-12.5777
▁cerises	-12.5777
▁saignait	-12.5777
▁sirenes	-12.5777
▁transige	-12.5777
▁epate	-12.5777
▁preches	-12.5777
▁resolv	-12.5777
▁chahute	-12.5777
▁braque	-12.5777
▁briques	-12.5777
▁desserre	-12.5777
▁ronge	-12.5777
▁requete	-12.5777
▁sitot	-12.5777
▁labour	-12.5777
oala	-12.5778
▁amateur	-12.5778
▁madri	-12.5778
▁salari	-12.5778
▁detresse	-12.5778
▁blous	-12.5778
▁defectueu	-12.5778
compre	-12.5778
▁emigr	-12.5778
▁boirai	-12.5779
▁lointain	-12.578
▁mesquin	-12.5781
▁elargi	-12.5791
▁illustr	-12.5792
tonien	-12.5798
▁decode	-12.5799
generer	-12.5804
minable	-12.5808
▁audio	-12.5818
ocaliser	-12.5828
tinmes	-12.5828
spout	-12.5845
rimaire	-12.5855
▁emana	-12.596
▁stag	-12.5985
grade	-12.6049
faitceque	-12.6118
▁industri	-12.646
naitre	-12.6541
▁utilis	-12.6632
▁detruis	-12.6737
ilate	-12.6855
▁percoi	-12.6859
tourner	-12.6874
▁diag	-12.6954
▁abandonn	-12.7068
▁surviendra	-12.728
▁distribu	-12.7485
▁employ	-12.7489
▁temoign	-12.7567
▁ecrira	-12.761
▁embauch	-12.7618
imprimer	-12.764
▁tracass	-12.7697
▁effectu	-12.7728
▁procur	-12.7729
▁captur	-12.7841
spire	-12.7866
▁proced	-12.7959
▁doyen	-12.8011
roulant	-12.8024
▁occasionnelle	-12.8054
tiendrai	-12.8063
▁medical	-12.8117
▁echang	-12.812
▁orteil	-12.8134
▁multi	-12.8144
